<unk>	0
<s>	0
</s>	0
/	-1.43503
.	-2.78405
_	-2.93859
-	-3.0487
modules	-3.70929
node	-4.02938
js	-4.42394
▁	-4.48876
java	-5.00778
src	-5.01764
▁src	-5.17903
▁node	-5.24041
babel	-5.26248
s	-5.351
test	-5.4906
es	-5.5543
core	-5.59343
c	-5.59714
main	-5.67883
html	-5.73819
json	-5.73831
lib	-5.76745
h	-5.81062
2	-5.85468
png	-5.86923
php	-5.95934
org	-5.9605
com	-6.03752
d	-6.05235
f	-6.18928
laravel	-6.22335
elixir	-6.23313
py	-6.24805
1	-6.26278
3	-6.26699
plugin	-6.27955
r	-6.30107
txt	-6.30494
go	-6.34397
a	-6.45013
data	-6.45185
app	-6.52697
transform	-6.52887
▁objects	-6.53254
x	-6.54269
e	-6.54308
static	-6.55303
templates	-6.5592
v	-6.56216
md	-6.56368
preset	-6.56723
xml	-6.57044
lodash	-6.59656
images	-6.61021
cs	-6.63346
cpp	-6.63801
4	-6.66051
▁vendor	-6.6638
2015/	-6.66444
plugins	-6.66717
index	-6.66977
i	-6.71196
b	-6.71279
2015-	-6.74079
7	-6.76286
tests	-6.79482
n	-6.79498
css	-6.8166
build	-6.81984
▁public	-6.8251
▁app	-6.82697
ui	-6.82839
react	-6.85827
▁s	-6.87752
Test	-6.89021
resources	-6.90362
runtime	-6.91378
coda	-6.91634
exp	-6.93249
g	-6.95159
m	-6.98571
assets	-6.99182
api	-7.00425
include	-7.01215
5	-7.04406
library	-7.07652
D	-7.07853
benchmark	-7.08973
components	-7.09566
github	-7.11591
18	-7.13633
▁result	-7.13834
6	-7.16352
t	-7.18076
▁lib	-7.18809
source	-7.19141
server	-7.19419
web	-7.20124
map	-7.20858
rb	-7.21078
▁docs	-7.22456
0	-7.22652
8	-7.25043
ts	-7.25619
client	-7.26573
config	-7.27026
package	-7.27668
content	-7.27729
gulp	-7.28392
vendor	-7.29119
jpg	-7.30963
common	-7.3202
p	-7.33014
/@	-7.33661
android	-7.34994
db	-7.36722
lady	-7.3683
krakow	-7.36919
ozk	-7.36942
hpp	-7.39045
40	-7.39517
icons	-7.42334
base	-7.43447
class	-7.43708
io	-7.43718
util	-7.44651
res	-7.45847
bower	-7.46443
views	-7.46577
array	-7.47579
tools	-7.48531
▁Source	-7.49543
po	-7.51088
internal	-7.52776
o	-7.53689
min	-7.53715
classes	-7.54654
cache	-7.54775
sass	-7.55457
S	-7.57031
net	-7.57283
Resources	-7.57974
themes	-7.58367
▁tests	-7.58807
9	-7.59149
template	-7.59681
less	-7.59707
2.	-7.603
types	-7.60889
j	-7.64036
doc	-7.64439
▁test	-7.64718
is	-7.64975
python	-7.65224
▁build	-7.65792
Tests	-7.66324
▁wp	-7.67297
pl	-7.67501
lang	-7.67628
sdk	-7.68372
so	-7.6872
er	-7.68825
www	-7.68975
string	-7.7056
fn	-7.7093
boost	-7.71191
request	-7.71406
object	-7.71825
to	-7.72082
packages	-7.72235
docs	-7.72268
bootstrap	-7.72766
libs	-7.73401
storybook	-7.73628
ing	-7.74329
ed	-7.7435
ne	-7.74545
in	-7.74693
fp	-7.74997
model	-7.75163
en	-7.75627
README	-7.75721
▁drivers	-7.77582
6.	-7.79602
code	-7.80101
1.	-7.80335
cc	-7.8061
▁webapp	-7.81462
k	-7.82722
google	-7.8287
jquery	-7.83011
Gaussian	-7.83058
scss	-7.83233
admin	-7.83572
browser	-7.83663
compiler	-7.84223
Uniform	-7.84283
files	-7.84962
sStudy	-7.84993
aBenchmark	-7.85091
scala	-7.85105
htm	-7.85969
svg	-7.86522
img	-7.8702
spec	-7.87867
C	-7.87879
text	-7.88231
de	-7.88243
Data	-7.88354
site	-7.8887
tiles	-7.8892
Core	-7.89044
http	-7.90978
view	-7.91048
yml	-7.91244
page	-7.91294
eigen	-7.91551
lanum	-7.92795
cordova	-7.9314
var	-7.93499
examples	-7.93614
stream	-7.94322
npm	-7.94523
10	-7.94562
webapp	-7.94666
service	-7.94944
style	-7.96557
▁db	-7.9659
editor	-7.96859
all	-7.98514
properties	-7.98601
sh	-7.98639
ionic	-7.98688
meta	-7.99179
public	-7.99287
utils	-8.00073
dev	-8.0022
theme	-8.01267
features	-8.01959
oracle	-8.01971
angular	-8.02057
drivers	-8.02185
share	-8.02874
▁core	-8.02905
y	-8.03035
l	-8.03325
image	-8.03617
Assets	-8.03688
models	-8.03908
raw	-8.0409
T	-8.04301
ckeditor	-8.04606
arch	-8.05256
apache	-8.05399
services	-8.05671
Source	-8.05777
mpk	-8.06058
aktual	-8.06298
scripts	-8.06662
native	-8.07351
helper	-8.07534
file	-8.07727
I	-8.07747
default	-8.09829
icon	-8.11137
bin	-8.11495
gif	-8.1219
ext	-8.12212
list	-8.12241
sync	-8.12867
q	-8.14191
help	-8.15203
media	-8.16677
Service	-8.16822
32	-8.16845
▁web	-8.16869
sql	-8.16985
impl	-8.17309
▁order	-8.17616
locale	-8.17873
5-	-8.17916
6-	-8.17992
integration	-8.18142
LICENSE	-8.18233
eclipse	-8.18432
user	-8.18617
▁ajax	-8.18779
arm	-8.19064
comment	-8.19352
example	-8.19619
function	-8.20329
controller	-8.20857
linux	-8.21307
u	-8.22461
demo	-8.22712
generated	-8.23432
contrib	-8.23956
▁Documentation	-8.24417
A	-8.24605
▁angular	-8.25523
metadata	-8.25909
3.	-8.26253
zips	-8.26342
indivisible	-8.26366
get	-8.2642
R	-8.26746
grunt	-8.26898
App	-8.26945
math	-8.27265
▁plugins	-8.27303
Contents	-8.27578
oci	-8.27728
parser	-8.27812
event	-8.27874
maps	-8.28711
log	-8.28874
vm	-8.2921
search	-8.2933
Controller	-8.29399
dir	-8.29904
info	-8.30133
name	-8.31395
lite	-8.31506
on	-8.31854
deps	-8.32102
Model	-8.32376
▁data	-8.33012
Web	-8.33217
framework	-8.33943
set	-8.35341
fs	-8.36103
platforms	-8.36802
F	-8.37123
0.	-8.37651
View	-8.37733
11	-8.37821
it	-8.37831
platform	-8.37954
of	-8.38441
form	-8.39376
testing	-8.39406
module	-8.39733
stop	-8.39919
time	-8.4003
E	-8.40043
project	-8.4011
▁apps	-8.4011
init	-8.40123
▁arch	-8.40405
w	-8.40874
Config	-8.4089
ic	-8.41236
no	-8.41389
z	-8.4172
asm	-8.41833
▁doc	-8.44567
django	-8.44642
inc	-8.44812
support	-8.45277
update	-8.45897
block	-8.46309
_8	-8.46329
▁cpp	-8.46349
Practica	-8.46373
▁material	-8.46533
tags	-8.4658
linkedm	-8.47007
create	-8.47208
dist	-8.47546
▁Assets	-8.47688
yaml	-8.47891
M	-8.48474
schedule	-8.48565
▁projects	-8.48787
Makefile	-8.49271
unit	-8.49295
N	-8.49637
aws	-8.49931
jsx	-8.50036
merge	-8.50071
re	-8.50162
bundle	-8.5161
Type	-8.51669
engine	-8.51796
network	-8.51904
fonts	-8.52245
pom	-8.52273
▁libs	-8.52318
B	-8.52483
V	-8.52787
browserify	-8.53281
▁Project	-8.53551
master	-8.54038
jar	-8.54293
G	-8.55007
type	-8.55209
debug	-8.55295
virtual	-8.55754
▁static	-8.56147
layout	-8.56401
graph	-8.56463
P	-8.56598
drawable	-8.5673
table	-8.56793
Exception	-8.57055
ql	-8.57195
▁include	-8.57357
gtfs	-8.57567
Bundle	-8.57604
4.	-8.57623
regex	-8.57815
▁assets	-8.58034
path	-8.58429
security	-8.58449
read	-8.58502
ios	-8.58688
latest	-8.58693
▁res	-8.58893
includes	-8.59435
session	-8.59536
values	-8.59862
mach	-8.59914
ca	-8.60079
Manager	-8.60239
drupal	-8.60378
01	-8.60832
input	-8.61246
▁examples	-8.61584
bootswatch	-8.61628
ads	-8.61984
▁dist	-8.62189
my	-8.62649
mobile	-8.62715
▁Final	-8.62902
J	-8.63018
os	-8.63163
functions	-8.6369
Base	-8.63757
▁resources	-8.63904
▁packages	-8.63965
ThumbService	-8.64381
manager	-8.64593
Client	-8.64883
connect	-8.65102
old	-8.65182
party	-8.65327
and	-8.65755
shared	-8.65876
rp	-8.66006
for	-8.66401
open	-8.6709
system	-8.676
▁wiki	-8.6798
gui	-8.68142
Scripts	-8.68157
rdparty	-8.68224
custom	-8.68353
16	-8.68774
with	-8.68883
al	-8.69157
5.	-8.69207
List	-8.69337
jdk	-8.69561
Common	-8.69673
graalvm	-8.69901
conf	-8.69951
add	-8.70039
link	-8.70711
component	-8.71306
sun	-8.7146
script	-8.72562
X	-8.72749
new	-8.72906
gen	-8.73065
wp	-8.73302
File	-8.73374
rst	-8.73516
detail	-8.74185
store	-8.74284
ar	-8.74319
WebCore	-8.74482
dashboard	-8.74753
helpers	-8.74869
cli	-8.75395
Pods	-8.75566
output	-8.7572
el	-8.75765
▁addons	-8.75774
forum	-8.76291
schema	-8.77177
7.	-8.77857
Plugin	-8.77862
settings	-8.78151
apps	-8.78257
CGAL	-8.78268
ac	-8.78596
CMakeFiles	-8.78599
▁third	-8.79225
htdocs	-8.7938
swift	-8.7941
agent	-8.79497
st	-8.79716
readable	-8.79803
rs	-8.79816
parse	-8.79932
at	-8.80285
symbol	-8.80722
W	-8.80738
video	-8.81178
train	-8.81243
classlib	-8.81352
tmp	-8.81614
actor	-8.81651
14	-8.81774
stable	-8.8186
12	-8.81897
fr	-8.81953
boot	-8.82127
verifycode	-8.82129
out	-8.82173
▁enhanced	-8.82218
cloud	-8.82293
Node	-8.82339
express	-8.82343
alpha	-8.82379
or	-8.82793
async	-8.82854
06	-8.82936
rxjs	-8.83146
traverse	-8.83544
Magento	-8.83591
socket	-8.83756
persistence	-8.83955
Documents	-8.84022
as	-8.84036
04	-8.8443
mo	-8.84438
▁tools	-8.84491
2.7/	-8.84627
us	-8.84638
Info	-8.84809
controllers	-8.85448
UI	-8.8574
▁server	-8.85916
pages	-8.86396
09	-8.86495
menu	-8.86552
rfc	-8.86672
local	-8.86985
styles	-8.87041
filter	-8.87149
caniuse	-8.87232
H	-8.87516
prof	-8.87632
docset	-8.8766
Event	-8.87798
User	-8.87822
global	-8.88141
▁client	-8.88163
kernel	-8.88191
experiments	-8.88357
number	-8.88536
bg	-8.88597
Code	-8.88656
win	-8.88828
20	-8.88945
make	-8.89069
illi	-8.8908
15	-8.89153
osg	-8.89161
la	-8.89416
▁source	-8.89494
INF	-8.89534
builder	-8.89592
un	-8.89682
able	-8.90032
closure	-8.90142
da	-8.90178
actors	-8.90294
pilot	-8.90376
13	-8.9038
▁spec	-8.90408
ietf	-8.905
Component	-8.90773
postcss	-8.91335
crypto	-8.91342
▁RFC	-8.91354
System	-8.91409
runs	-8.91599
auth	-8.91685
reflect	-8.91707
▁synapse	-8.9198
64	-8.92303
mtur	-8.92339
color	-8.92373
radical	-8.9245
posts	-8.92503
resource	-8.92506
pm	-8.92878
events	-8.92948
sub	-8.93062
game	-8.93129
▁components	-8.93259
staging	-8.93724
▁metadata	-8.93974
storage	-8.94188
font	-8.94197
tag	-8.9424
K	-8.94304
collection	-8.94374
register	-8.94631
pt	-8.94695
ruby	-8.94753
Classes	-8.9479
tree	-8.94933
Map	-8.94989
gyp	-8.95059
Server	-8.95226
Command	-8.95229
up	-8.95588
twig	-8.95882
17	-8.95905
pkg	-8.95938
strings	-8.96296
WebKit	-8.96405
In	-8.96549
Default	-8.96557
▁hotspot	-8.96913
intermediates	-8.97562
id	-8.97789
key	-8.98341
24	-8.98346
Cache	-8.98478
check	-8.98773
▁images	-8.98906
Factory	-8.98917
ru	-8.98983
error	-8.99148
grpc	-8.99468
sys	-8.99506
material	-8.99513
cmake	-8.99756
basic	-9.00018
keys	-9.00113
current	-9.00403
coffee	-9.00925
rest	-9.01035
Project	-9.0104
fb	-9.01209
fixtures	-9.0127
administrator	-9.01356
▁W	-9.01403
feature	-9.01536
plot	-9.01681
Library	-9.0186
install	-9.0188
dd	-9.02243
version	-9.02299
be	-9.02313
do	-9.02448
flow	-9.02453
ace	-9.02827
response	-9.02849
regenerator	-9.02935
application	-9.03278
box	-9.03299
man	-9.03312
▁devel	-9.03418
47/	-9.03868
management	-9.03917
sources	-9.03927
Storage	-9.03993
Abstract	-9.04112
To	-9.04328
gems	-9.04446
Form	-9.04704
Object	-9.04942
release	-9.04979
auto	-9.05229
19	-9.05297
Handler	-9.05329
Impl	-9.05337
uglify	-9.05422
ad	-9.05466
database	-9.05698
mac	-9.05958
▁jdk	-9.06039
▁reference	-9.0605
kt	-9.06069
▁sites	-9.06228
control	-9.06317
dom	-9.06415
▁dev	-9.06477
origin	-9.06924
query	-9.07123
Image	-9.07237
co	-9.07476
21	-9.07543
use	-9.07653
extensions	-9.07692
replace	-9.07728
npmignore	-9.0792
button	-9.08033
Debug	-9.08181
ja	-9.08281
action	-9.08393
ng	-9.08474
golang	-9.08603
Action	-9.08827
Filter	-9.08905
openlayers	-9.08989
L	-9.09626
Interface	-9.09828
Editor	-9.09864
grid	-9.10214
home	-9.10287
edit	-9.10351
csv	-9.10492
expected	-9.10656
typed	-9.10723
end	-9.10798
78	-9.11054
run	-9.11115
me	-9.1138
usb	-9.11412
Engine	-9.11455
dll	-9.11495
super	-9.11747
iterator	-9.11917
Interfaces	-9.11922
int	-9.12172
rules	-9.12183
Models	-9.12232
Text	-9.12507
windows	-9.12622
report	-9.12739
qemu	-9.12963
46/	-9.12983
proxy	-9.13016
post	-9.13624
am	-9.13653
multi	-9.13677
Management	-9.13859
mode	-9.14045
Table	-9.14137
symfony	-9.14475
skins	-9.14598
▁application	-9.14709
ro	-9.14753
8.	-9.14972
Builder	-9.15025
Module	-9.15221
lua	-9.1555
Main	-9.15677
parameters	-9.15759
05	-9.15771
field	-9.15968
ps	-9.16054
xx	-9.16411
▁trunk	-9.16458
libraries	-9.16493
nl	-9.16624
ch	-9.16635
Item	-9.16672
csproj	-9.16737
API	-9.16868
simple	-9.17067
+	-9.17104
xercesc	-9.17209
Resource	-9.17918
statsmodels	-9.18185
group	-9.18396
date	-9.1844
Parser	-9.1846
env	-9.18823
10.	-9.18985
cms	-9.18994
Search	-9.19059
cmd	-9.19084
.0.	-9.19317
misc	-9.19324
Configuration	-9.19338
tr	-9.19959
the	-9.20064
Net	-9.20184
liferay	-9.20201
ds	-9.20348
console	-9.20583
O	-9.20995
Page	-9.2115
readme	-9.21273
03	-9.21503
decaf	-9.21523
U	-9.21529
tracers	-9.21711
Template	-9.21861
widget	-9.21956
ee	-9.22024
rc	-9.22121
desktop	-9.22251
electron	-9.22318
obj	-9.22506
Lib	-9.22517
validation	-9.22904
mips	-9.23083
device	-9.23091
select	-9.23137
bindings	-9.2328
zh	-9.23332
systemjs	-9.23361
glob	-9.23468
Framework	-9.23686
▁code	-9.23795
property	-9.23881
line	-9.24011
_1_1_	-9.241
languages	-9.24247
eslint	-9.24368
erb	-9.24741
javascript	-9.25187
64/	-9.25231
item	-9.25274
Request	-9.25293
language	-9.25324
load	-9.25389
ws	-9.25442
02	-9.25476
ms	-9.25481
arrow	-9.25495
ko	-9.25532
reference	-9.25539
ini	-9.25661
zend	-9.25773
Utils	-9.26253
groovy	-9.26396
doraemonkit	-9.26466
optimize	-9.26582
Message	-9.26593
Ch	-9.2662
Provider	-9.26647
▁backend	-9.2705
sample	-9.2712
define	-9.27232
Microsoft	-9.27252
Demo	-9.27259
Entity	-9.2728
HTML	-9.27341
vb	-9.27348
tsx	-9.27432
tpl	-9.27495
Element	-9.27516
22	-9.27577
Z	-9.2766
only	-9.27838
kit	-9.27854
rebuild	-9.27859
Content	-9.28093
proto	-9.28549
ci	-9.28551
Set	-9.28653
dialogs	-9.29008
logger	-9.29078
layer	-9.2934
git	-9.29465
frontend	-9.2968
ref	-9.29798
rails	-9.29854
amd	-9.29915
▁release	-9.29972
pdf	-9.30025
from	-9.30141
mm	-9.30269
/2.1.0/	-9.3036
mongoose	-9.30556
23	-9.3068
travis	-9.30793
apidocs	-9.30806
analysis	-9.3082
ex	-9.30824
result	-9.31093
light	-9.31128
Settings	-9.3116
WEB	-9.31301
chart	-9.31453
46	-9.31511
Class	-9.31572
xhtml	-9.31609
stylesheets	-9.32088
▁bin	-9.32312
Database	-9.32312
xc	-9.32347
32/	-9.3239
ml	-9.32747
mod	-9.32924
backend	-9.3345
hs	-9.33455
nodemon	-9.33519
fa	-9.33546
MindTouch	-9.33653
_10.0.1	-9.33728
ec	-9.33888
▁library	-9.34043
Input	-9.34138
Context	-9.34247
gradle	-9.34251
mat	-9.34375
Y	-9.34466
Documentation	-9.34824
16.	-9.34869
3.5/	-9.34919
buffer	-9.34985
bb	-9.35092
red	-9.35139
dat	-9.35198
Tools	-9.35204
cross	-9.35335
docroot	-9.35609
Helper	-9.35735
zendframework	-9.36105
28	-9.36357
messages	-9.36374
Util	-9.36459
loader	-9.36764
Properties	-9.3685
pre	-9.3698
product	-9.3701
armnn	-9.37036
validator	-9.37071
Commands	-9.37098
LC	-9.37176
commands	-9.37314
Re	-9.37444
32.	-9.37487
next	-9.37786
▁Current	-9.37807
watch	-9.37994
9.	-9.3816
gl	-9.38226
preadsheeteditor	-9.38236
setup	-9.38525
fsevents	-9.38564
08	-9.38709
command	-9.38747
pbern	-9.38842
sconi	-9.38869
ia	-9.39132
format	-9.39355
le	-9.39632
hw	-9.3976
asset	-9.39813
▁scripts	-9.39949
driver	-9.40085
bar	-9.40302
tasks	-9.40408
Unit	-9.40425
oojs	-9.40662
samples	-9.40893
match	-9.40917
Q	-9.41079
ab	-9.4134
unicode	-9.41368
context	-9.41465
lo	-9.41491
Admin	-9.41505
patch	-9.41535
jade	-9.41546
frame	-9.41758
▁controllers	-9.41811
Extensions	-9.41821
blog	-9.41855
protocol	-9.41953
carbon	-9.41965
header	-9.42323
asio	-9.42488
▁external	-9.42597
ip	-9.4273
goog	-9.42754
folio	-9.42776
Headers	-9.42799
progress	-9.42831
ce	-9.42942
edu	-9.43154
actions	-9.43241
▁3	-9.43262
SNAPSHOT	-9.43505
container	-9.43547
With	-9.43586
mp	-9.43655
ie	-9.43668
▁Android	-9.43744
rate	-9.43985
provider	-9.43998
Name	-9.44099
license	-9.44269
stats	-9.44397
tool	-9.44434
sites	-9.44573
handler	-9.44828
ly	-9.44901
pyc	-9.44955
admission	-9.4515
dark	-9.45173
Block	-9.45363
ant	-9.45385
Api	-9.45426
ba	-9.45433
dm	-9.45864
ion	-9.45908
90	-9.4602
uk	-9.46097
task	-9.46123
_2_	-9.46207
external	-9.46264
awt	-9.46498
eu	-9.4653
pr	-9.4656
has	-9.46605
et	-9.46719
target	-9.4677
an	-9.46832
import	-9.46866
profile	-9.46935
phpunit	-9.47043
suite	-9.47155
Security	-9.47291
Group	-9.47385
policy	-9.47446
snippets	-9.4751
functional	-9.47575
zip	-9.47601
back	-9.47833
MESSAGE	-9.47898
objects	-9.4796
af	-9.48026
rtl	-9.48135
wso	-9.48217
PressPlugin	-9.4833
Layout	-9.48355
Dispatch	-9.48518
Query	-9.48547
Private	-9.48569
generator	-9.48605
pmon	-9.48619
javascripts	-9.48625
se	-9.48711
details	-9.48745
Services	-9.48852
process	-9.48855
message	-9.48858
64.	-9.48867
frozen	-9.48874
flags	-9.48926
esm	-9.49008
Win	-9.49082
Application	-9.49177
instance	-9.49275
babelify	-9.49307
Adapter	-9.49402
Property	-9.4956
Field	-9.49599
mini	-9.49636
errors	-9.4967
cocos	-9.49684
forms	-9.49833
jetpack	-9.49948
world	-9.49996
find	-9.49999
▁google	-9.50028
loopback	-9.50059
SDK	-9.50108
svn	-9.50167
op	-9.50232
dialog	-9.50279
cl	-9.50355
Zend	-9.50648
Get	-9.50751
State	-9.50798
br	-9.50921
registry	-9.50922
Control	-9.50927
$	-9.50931
pro	-9.51083
Example	-9.51175
gpu	-9.51243
commons	-9.51377
Error	-9.51389
big	-9.51495
autoprefixer	-9.51547
fe	-9.51601
01.	-9.5163
url	-9.51675
27	-9.51736
awesome	-9.51804
mysql	-9.51865
if	-9.51888
Activity	-9.51918
right	-9.51933
Standard	-9.52026
router	-9.52189
one	-9.52233
▁Code	-9.52257
Media	-9.52376
nav	-9.52581
▁pkg	-9.52645
internals	-9.52665
work	-9.52746
bd	-9.52872
cd	-9.53259
/5.0.0-	-9.53279
pack	-9.53321
.017119.0002/	-9.53329
Box	-9.5338
▁config	-9.53401
small	-9.53411
2048/	-9.53466
delete	-9.53493
scipy	-9.53564
12.	-9.53578
root	-9.53594
ViewController	-9.53611
hudson	-9.5379
laminas	-9.5379
.35/	-9.53852
Store	-9.53884
tab	-9.53999
swing	-9.54009
war	-9.54156
cpu	-9.54188
extension	-9.54232
beta	-9.54253
notifier	-9.54271
00	-9.54386
lock	-9.54426
tinymce	-9.54459
computed	-9.54622
07	-9.54694
white	-9.54694
Linux	-9.54756
th	-9.54873
cxx	-9.54973
Http	-9.55042
rdParty	-9.55063
logo	-9.55143
sticky	-9.55168
Game	-9.55312
account	-9.55403
-3.1.2/	-9.55435
mout	-9.55484
Reader	-9.55618
regexp	-9.55684
Value	-9.55746
migrate	-9.55755
Auto	-9.55845
display	-9.55875
domain	-9.56147
Generator	-9.56192
70	-9.56588
▁201	-9.56741
punchcard	-9.56741
third	-9.56743
entity	-9.56749
options	-9.56761
moment	-9.568
expanded	-9.56946
Misc	-9.56966
iOS	-9.5705
ation	-9.57056
Archives	-9.57302
wildfly	-9.57642
demos	-9.57711
pytz	-9.578
▁sources	-9.57947
loongson	-9.57996
Task	-9.58246
remote	-9.58385
Array	-9.58504
range	-9.58541
Key	-9.5884
icu	-9.5892
order	-9.58928
idea	-9.58973
generic	-9.59055
Add	-9.59133
wrapper	-9.59212
Log	-9.59232
zoneinfo	-9.59234
spring	-9.59249
▁t	-9.59268
host	-9.59291
webpack	-9.59449
zz	-9.59463
tex	-9.59496
▁Support	-9.59619
Tree	-9.59851
_1.	-9.59878
di	-9.59919
gtk	-9.59957
▁game	-9.60562
msm	-9.6065
facebook	-9.60982
ol	-9.60997
scene	-9.61014
29	-9.61046
rt	-9.61107
by	-9.61235
fc	-9.61319
▁tensorflow	-9.61514
tiny	-9.6162
mail	-9.61769
learn	-9.61777
sl	-9.61884
Panel	-9.61991
11.	-9.62018
▁hack	-9.62056
weak	-9.62146
testsuite	-9.62241
cluster	-9.6231
/512/	-9.6236
dc	-9.62373
ff	-9.6239
state	-9.62446
Plugins	-9.625
Functions	-9.62553
Response	-9.62687
jshint	-9.627
Images	-9.62721
struct	-9.62929
inquirer	-9.62994
@2	-9.63016
TARGET	-9.63041
43	-9.6312
markdown	-9.63247
qt	-9.63309
ai	-9.63325
wireless	-9.63788
Spec	-9.63836
fd	-9.64054
Mantid	-9.64126
bs	-9.64141
im	-9.64159
swarm	-9.64208
max	-9.64448
String	-9.64504
mk	-9.64615
Index	-9.6476
25	-9.64794
sp	-9.64959
▁the	-9.64972
▁learn	-9.65056
commonjs	-9.65073
langs	-9.65278
ldap	-9.65337
CSS	-9.65404
operator	-9.65485
doge	-9.65647
ast	-9.65661
blue	-9.65716
top	-9.65848
Plo	-9.65988
locales	-9.65991
Symfony	-9.6608
sound	-9.66105
hq	-9.66131
watchify	-9.66137
merged	-9.66154
bc	-9.66217
54	-9.6637
eb	-9.66371
ta	-9.66459
wordpress	-9.66469
performance	-9.6655
login	-9.66657
strip	-9.66661
jdt	-9.66775
safe	-9.66791
51	-9.6694
harmony	-9.67117
social	-9.6717
cf	-9.67183
codemirror	-9.67281
book	-9.67495
start	-9.67512
translations	-9.67572
Release	-9.67659
Shared	-9.6796
step	-9.6803
history	-9.68043
idig	-9.68058
▁types	-9.68114
value	-9.68164
ir	-9.68231
te	-9.68242
▁includes	-9.68328
Time	-9.68333
30	-9.68372
Modules	-9.6844
guide	-9.68448
Eleflex	-9.68491
development	-9.68651
ae	-9.68674
signature	-9.68729
Enums	-9.68828
pci	-9.68833
rx	-9.68855
results	-9.68862
javax	-9.69104
space	-9.69164
uploads	-9.69226
port	-9.69513
solr	-9.6959
email	-9.69653
graphics	-9.6986
configuration	-9.69911
Simple	-9.69981
fi	-9.70055
ea	-9.70067
ra	-9.70198
50	-9.70297
hash	-9.7031
gitignore	-9.70344
copy	-9.70448
shell	-9.70491
graal	-9.70524
um	-9.70558
collections	-9.70647
mock	-9.70681
skin	-9.70694
vi	-9.70762
active	-9.70781
20.	-9.70787
Session	-9.70792
play	-9.70845
con	-9.71074
ansi	-9.71084
Build	-9.7112
tar	-9.71297
mpl	-9.71343
Extension	-9.71375
func	-9.71479
sort	-9.71521
projects	-9.71546
btn	-9.71569
Repository	-9.71607
bf	-9.7169
phpmyadmin	-9.71727
DB	-9.7175
.017118.0000/	-9.71833
adapter	-9.71866
har	-9.71914
mongodb	-9.71932
14.	-9.72049
ide	-9.72202
access	-9.72325
stack	-9.72672
xwiki	-9.72722
joda	-9.72739
users	-9.72752
7.6.0-	-9.72801
filters	-9.72804
42	-9.72814
channel	-9.72953
ge	-9.72978
venv	-9.73035
13.	-9.73145
geo	-9.73438
▁2	-9.73645
released	-9.73799
plus	-9.73922
haddock	-9.7414
connection	-9.74175
Sample	-9.74402
▁1.0/	-9.74546
concat	-9.74621
widgets	-9.74667
kotlin	-9.74815
operators	-9.74875
chokidar	-9.74984
upload	-9.74988
▁img	-9.75093
compile	-9.75302
▁Info	-9.7547
lproj	-9.755
cssnano	-9.75507
ur	-9.75705
▁Stuff	-9.75729
variables	-9.75839
▁clean	-9.7587
spi	-9.75946
15.	-9.76024
86_64-4.0	-9.76354
Objects	-9.76394
25.	-9.76547
window	-9.76571
ma	-9.76602
firebase	-9.7675
umd	-9.76777
proj	-9.7679
Stream	-9.77003
referrer	-9.7722
board	-9.77232
down	-9.77319
polyfill	-9.77625
qll	-9.7768
hu	-9.77726
.9.	-9.77861
ti	-9.78103
normalize	-9.78117
▁cli	-9.78164
child	-9.78208
Function	-9.78489
semmle	-9.785
own	-9.78619
Custom	-9.78731
Templates	-9.78861
cp	-9.79128
diff	-9.79173
86	-9.79189
mixins	-9.79196
dot	-9.79204
bl	-9.79206
waterwheelDemo	-9.79356
literals	-9.79403
pad	-9.79485
nd	-9.79526
export	-9.79728
86/	-9.79739
point	-9.79927
Result	-9.7995
Icon	-9.79953
summary	-9.80007
promise	-9.80066
compat	-9.80075
supers	-9.80217
Sub	-9.80357
powerpc	-9.80518
▁python	-9.8056
Cms	-9.80606
mi	-9.80624
layouts	-9.80657
sprites	-9.80709
links	-9.8085
members	-9.80949
non	-9.80966
composer	-9.80967
▁UW	-9.80998
shrinkwrap	-9.81023
usage	-9.81042
rogressIndicator	-9.81079
Java	-9.81103
▁sql	-9.81177
cas	-9.81225
Menu	-9.81283
Scene	-9.81312
duplicate	-9.81349
Button	-9.81583
legacy	-9.81597
protobuf	-9.816
geometry	-9.81627
6.5.1-	-9.81627
lt	-9.81678
status	-9.81695
▁Session	-9.81749
player	-9.81757
card	-9.82014
addons	-9.82203
ap	-9.82221
abc	-9.82231
chalk	-9.82233
52	-9.82432
observable	-9.82539
front	-9.8259
CHANGELOG	-9.82631
hotspot	-9.82704
clean	-9.82794
286	-9.82852
gtest	-9.8293
Network	-9.83069
Results	-9.83125
Old	-9.83226
through	-9.8324
il	-9.83297
Json	-9.83553
Dialog	-9.83755
Listener	-9.83782
blocks	-9.83847
Method	-9.83861
arcusys	-9.84138
aa	-9.84204
panel	-9.8427
Loader	-9.84309
interface	-9.84351
ali	-9.84425
compute	-9.84531
audio	-9.84618
Internal	-9.84636
trace	-9.84686
01_	-9.84744
cb	-9.85003
dts	-9.85105
hr	-9.8512
mime	-9.85129
CMakeLists	-9.85168
per	-9.85183
Container	-9.85223
print	-9.85356
queue	-9.85484
vector	-9.85538
uw	-9.85541
constants	-9.85612
migrations	-9.85688
pp	-9.85717
Create	-9.8581
private	-9.85831
▁libraries	-9.85859
airline	-9.85866
meow	-9.85927
Update	-9.85994
Open	-9.86023
▁vendors	-9.86122
reg	-9.86122
change	-9.86223
75	-9.864
repository	-9.86517
production	-9.8654
02/	-9.86625
ka	-9.86686
render	-9.86706
▁cas	-9.86861
chromium	-9.86939
21.	-9.86941
91	-9.87147
pip	-9.87159
sha	-9.87217
unix	-9.87265
black	-9.87331
flat	-9.87341
bot	-9.87362
Types	-9.87388
My	-9.87414
size	-9.87436
For	-9.87448
▁chrome	-9.87468
Connection	-9.87492
resolve	-9.8763
53	-9.87736
Multi	-9.8787
df	-9.87898
serve	-9.87911
si	-9.88004
24.	-9.88046
ll	-9.8823
Target	-9.88245
-2.0.5/	-9.88259
aux	-9.88404
▁user	-9.88491
identity	-9.88566
_3_	-9.88646
▁mysql	-9.88679
jtt	-9.88783
che	-9.88911
fast	-9.89176
he	-9.89258
68	-9.89266
56	-9.89462
glyphicons	-9.89464
▁templates	-9.89892
26	-9.89894
tcl	-9.8997
comp	-9.89996
activity	-9.90066
30.	-9.90138
launcher	-9.9018
60	-9.90212
Drupal	-9.90214
lu	-9.90241
Output	-9.90312
vue	-9.90618
issue	-9.90621
show	-9.90637
prism	-9.90705
location	-9.90757
middleware	-9.90842
Process	-9.90986
All	-9.91
▁net	-9.91207
And	-9.91246
docker	-9.91291
repo	-9.91413
requirejs	-9.91445
na	-9.91521
ops	-9.91611
plan	-9.91688
ent	-9.91698
48	-9.91825
float	-9.91967
Platform	-9.91971
▁Pods	-9.91978
feed	-9.92005
45	-9.92135
metrics	-9.92137
__63__	-9.92279
Collection	-9.92291
643	-9.92388
▁content	-9.92534
webfont	-9.92555
apis	-9.92649
power	-9.92866
▁Example	-9.9289
71	-9.93036
▁po	-9.93075
Dockerfile	-9.93129
renderer	-9.93216
cases	-9.93278
ico	-9.93295
Path	-9.93296
minimatch	-9.93373
aar	-9.9339
▁l	-9.93566
ri	-9.93652
Of	-9.93932
Examples	-9.93945
Views	-9.93967
px	-9.93976
Level	-9.94011
Solution	-9.94129
scoping	-9.94177
ef	-9.94179
Player	-9.94239
Script	-9.94291
jp	-9.94292
we	-9.94309
▁Server	-9.94449
17.	-9.94564
Window	-9.946
not	-9.94626
sign	-9.9465
ttf	-9.94754
trim	-9.94788
Domain	-9.94828
shorthand	-9.94899
Edit	-9.94919
Renderer	-9.95009
36.	-9.95036
▁org	-9.95057
elements	-9.95061
mne	-9.95121
char	-9.9528
background	-9.95358
▁datasets	-9.95371
▁samples	-9.95475
Tag	-9.95476
Materials	-9.95627
testdata	-9.95667
raft	-9.95715
typings	-9.95775
training	-9.95872
cast	-9.95887
Format	-9.95905
yui	-9.96231
GCModeller	-9.96262
oauth	-9.96269
Reference	-9.96277
professor	-9.9633
979	-9.96393
76	-9.96463
Wrapper	-9.96472
tt	-9.9652
coverage	-9.9679
19.	-9.96813
temp	-9.9682
partials	-9.96854
mem	-9.96862
rmp	-9.9693
contact	-9.96964
woff	-9.97016
mc	-9.97167
explorer	-9.97298
ul	-9.97337
portofino	-9.97458
syntax	-9.97494
Expression	-9.97735
pb	-9.97766
recipes	-9.97774
02.	-9.97786
descriptor	-9.9781
design	-9.97825
wpt	-9.97833
ers	-9.98111
Validator	-9.98124
calendar	-9.98126
META	-9.98134
▁frontend	-9.98152
Exercise	-9.98199
preview	-9.98215
Link	-9.98232
factory	-9.9824
manifest	-9.9824
sk	-9.98312
31.	-9.98327
hawk	-9.98364
element	-9.98466
New	-9.98582
XML	-9.98614
79	-9.98679
▁blog	-9.98712
GAE	-9.98723
No	-9.98858
film	-9.98877
Local	-9.99132
batch	-9.9915
xcodeproj	-9.99175
Graph	-9.99236
Ice	-9.99261
74	-9.99461
lab	-9.99501
jmespath	-9.99572
left	-9.99754
Document	-9.9977
Testing	-9.99891
worker	-9.99952
pa	-10.0034
globule	-10.0037
GUI	-10.004
pc	-10.0044
gms	-10.0055
datepicker	-10.0056
bit	-10.0057
requests	-10.0057
embed	-10.0063
23.	-10.0064
How	-10.0065
job	-10.0104
Header	-10.0119
apollo	-10.0135
Color	-10.0137
phantomjs	-10.0149
pi	-10.0151
▁fs	-10.0152
Pro	-10.0154
cheerio	-10.0158
▁Core	-10.0168
@	-10.0171
preprocessed	-10.0173
hi	-10.0179
sim	-10.0188
▁admin	-10.0193
latex	-10.0197
Un	-10.0202
Utilities	-10.0203
scsi	-10.0222
screen	-10.0222
slider	-10.0237
▁common	-10.0243
Processor	-10.0244
amazon	-10.0247
jdbc	-10.0249
Checkout	-10.0255
UIApp	-10.0256
lazy	-10.0259
phone	-10.0264
gz	-10.0267
cfgs	-10.0268
▁target	-10.0281
easy	-10.03
Style	-10.0301
22.	-10.0302
monitor	-10.0314
ajax	-10.0321
▁services	-10.0335
extra	-10.0339
/#/	-10.0342
method	-10.0342
favicon	-10.0347
De	-10.0359
micro	-10.0364
Console	-10.0365
architecture	-10.0371
imageset	-10.0375
Attribute	-10.0378
tap	-10.0387
▁bower	-10.0396
self	-10.0397
ve	-10.0401
textile	-10.0403
▁media	-10.0407
IO	-10.0418
dateformat	-10.0418
ft	-10.0431
Oro	-10.0431
vcxproj	-10.0443
34.	-10.0445
backup	-10.0447
cfg	-10.0456
lp	-10.0458
Samples	-10.0462
reader	-10.0463
Report	-10.0471
transport	-10.0471
yargs	-10.0475
8.1	-10.0479
matrix	-10.0481
CordovaLib	-10.0489
def	-10.0495
case	-10.0496
nashorn	-10.05
ter	-10.0503
Components	-10.052
rule	-10.0526
fields	-10.0532
Swift	-10.0534
vinyl	-10.0542
Unity	-10.0545
au	-10.0546
prototype	-10.0555
Basic	-10.057
Parse	-10.0573
workspace	-10.0578
Version	-10.058
swagger	-10.0585
NequeoCompany	-10.06
description	-10.06
canvas	-10.0604
integer	-10.0604
workload	-10.0607
analytics	-10.0622
Mvc	-10.063
items	-10.0638
drm	-10.0651
Decor	-10.0653
valid	-10.0653
▁ui	-10.0655
dtk	-10.0657
27.	-10.067
Widget	-10.0673
Check	-10.0686
Textures	-10.0688
head	-10.0694
tu	-10.0696
regression	-10.0697
neo	-10.0701
region	-10.0702
call	-10.0704
redis	-10.0705
normal	-10.0708
tmpl	-10.0708
fermat	-10.0709
single	-10.0709
roms	-10.072
Writer	-10.072
Product	-10.0723
▁api	-10.0732
38.	-10.0737
pe	-10.0738
TeX	-10.074
Backend	-10.0741
cu	-10.0742
_5_	-10.0746
LayoutTests	-10.075
MathJax	-10.0759
The	-10.0766
javadoc	-10.0772
chat	-10.0776
channels	-10.0778
memory	-10.0779
segment	-10.0787
gwt	-10.0787
▁www	-10.0791
vs	-10.0793
assign	-10.0794
rdf	-10.0798
jpa	-10.0798
_6_	-10.081
35.	-10.0831
28.	-10.0834
directory	-10.0835
▁k	-10.0838
highlight	-10.0838
products	-10.084
indicator	-10.0846
visual	-10.0849
2017	-10.0853
opt	-10.0855
sw	-10.0868
adec	-10.0871
soc	-10.0874
soft	-10.0877
wallet	-10.0879
▁Module	-10.0881
Proxy	-10.0882
jsp	-10.0882
▁initializr	-10.0886
baac	-10.0886
hdpi	-10.0887
em	-10.0888
fusion	-10.089
2014	-10.0891
/0.20.2/	-10.0898
films	-10.0907
Grid	-10.0909
ecae	-10.0912
tables	-10.0932
esnext	-10.0933
bus	-10.0934
scm	-10.0944
CSharp	-10.0946
26.	-10.0949
-1.4.4/	-10.095
▁repos	-10.096
sm	-10.096
Render	-10.0975
chain	-10.0976
todo	-10.0977
testcases	-10.0984
mce	-10.0991
sv	-10.0997
29.	-10.1
performances	-10.1001
serialization	-10.1002
03-	-10.1005
Token	-10.1007
31	-10.1012
Entry	-10.102
ssl	-10.1024
send	-10.1025
▁stable	-10.1025
asn	-10.1041
bind	-10.1047
▁K	-10.1048
Versions	-10.1055
Options	-10.1056
stat	-10.1059
▁sound	-10.1059
Or	-10.1064
35	-10.1065
bitdubai	-10.107
▁browser	-10.1072
Frame	-10.1073
ify	-10.1075
39.	-10.1076
annotations	-10.108
advanced	-10.108
portal	-10.1083
Word	-10.1085
body	-10.1087
VLC	-10.1095
▁Library	-10.1099
li	-10.11
perf	-10.1105
document	-10.1123
2.3.1/	-10.1127
rep	-10.1128
_1_	-10.1138
accord	-10.1143
BR	-10.1163
str	-10.1167
entry	-10.1184
Driver	-10.1188
archive	-10.1194
58	-10.1196
37.	-10.1197
sonarqube	-10.12
utility	-10.1202
44	-10.1202
33.	-10.1209
▁chunk	-10.1217
argparse	-10.122
wwwroot	-10.1224
47	-10.1226
ls	-10.123
exploded	-10.1235
sublime	-10.125
switch	-10.1259
▁sonar	-10.1261
Cloud	-10.1267
about	-10.1269
enhanced	-10.127
Home	-10.127
▁website	-10.1284
Fragment	-10.1285
gateway	-10.1286
sparql	-10.1287
birt	-10.1288
zlib	-10.1289
extras	-10.129
expr	-10.1299
Regular	-10.13
Excel	-10.1307
random	-10.1317
Rule	-10.1324
wheel	-10.1332
308/	-10.134
100	-10.1347
dns	-10.1361
_12_	-10.1362
55	-10.1363
200	-10.1368
scale	-10.1375
huxing	-10.1378
ChangeLog	-10.1386
▁features	-10.1392
▁war	-10.1395
▁Tools	-10.1396
pipeline	-10.1404
Video	-10.1415
other	-10.1431
springframework	-10.1437
upgrade	-10.1441
generate	-10.1448
didi	-10.1451
Libs	-10.146
record	-10.1465
tile	-10.147
dump	-10.1471
binary	-10.149
first	-10.149
Access	-10.1492
processor	-10.1492
Src	-10.1497
Kconfig	-10.1507
Post	-10.1509
presentation	-10.151
ns	-10.1513
dp	-10.1514
tsa	-10.1515
handlebars	-10.1517
std	-10.1526
-5.2/	-10.1527
glr	-10.1537
Effects	-10.1544
over	-10.1546
mongo	-10.1547
ipynb	-10.1547
interfaces	-10.1556
row	-10.1557
Compiler	-10.1558
▁atom	-10.1569
universal	-10.1577
unity	-10.158
reduce	-10.1583
sc	-10.1586
akdb	-10.159
graphql	-10.159
vim	-10.1593
tech	-10.1599
Chart	-10.1613
Env	-10.1614
tor	-10.1616
methods	-10.163
animation	-10.1633
foundation	-10.1636
what	-10.1644
Account	-10.1645
routes	-10.1655
▁storage	-10.1656
count	-10.1662
notes	-10.167
mediawiki	-10.1678
Math	-10.1679
touch	-10.1683
Definition	-10.1689
same	-10.1694
▁closure	-10.1706
vc	-10.1711
gc	-10.1712
bug	-10.1722
Line	-10.174
thread	-10.174
mkdirp	-10.1744
▁Files	-10.1748
▁extensions	-10.175
star	-10.1753
xsd	-10.1756
Events	-10.1758
configs	-10.1768
shim	-10.177
puppet	-10.1774
dynamic	-10.1775
rpc	-10.1787
sldr	-10.1791
logging	-10.1801
PHPExcel	-10.1805
Nequeo	-10.1809
Package	-10.1819
semantic	-10.1821
poi	-10.1835
gamma	-10.1838
phx	-10.1843
save	-10.1846
toolbar	-10.1846
cat	-10.1852
convert	-10.1861
Audio	-10.1877
containers	-10.1878
escape	-10.1887
prop	-10.1887
applications	-10.1892
noise	-10.1893
pool	-10.1894
ga	-10.1899
insert	-10.1923
msg	-10.1925
volume	-10.1927
Carthage	-10.1927
authentication	-10.1927
▁C	-10.1936
redirect	-10.1939
luni	-10.194
ity	-10.1941
Support	-10.1956
Call	-10.1958
fix	-10.1972
route	-10.1973
65	-10.1977
bridge	-10.1979
History	-10.198
Order	-10.1991
ES	-10.1995
attack	-10.1998
Rest	-10.1998
38	-10.2001
ya	-10.2007
sr	-10.2024
inherits	-10.2025
free	-10.2036
prefab	-10.2039
Language	-10.204
edge	-10.2042
logic	-10.2048
▁Agit	-10.2061
gallery	-10.2064
Queue	-10.2073
63	-10.2075
utilities	-10.2076
omap	-10.2077
JS	-10.2092
Job	-10.2114
Public	-10.2116
_11_	-10.2118
inline	-10.2118
ExtremeMotionSDK	-10.2119
▁quest	-10.2129
align	-10.2133
write	-10.2134
_7_	-10.2186
cy	-10.2188
Layer	-10.2188
Bar	-10.2188
▁javascript	-10.2192
dart	-10.2202
question	-10.2203
targets	-10.2203
fill	-10.2208
spread	-10.2211
tf	-10.2233
vmkdrivers	-10.225
runner	-10.2253
bench	-10.2254
spirit	-10.2259
ifs	-10.2259
Kit	-10.2262
ethernet	-10.2265
regular	-10.2273
semver	-10.2273
website	-10.2282
80	-10.2286
split	-10.2287
Profile	-10.2288
Doctrine	-10.2291
hadoop	-10.2298
controls	-10.2307
messaging	-10.2314
echarts	-10.2324
Frameworks	-10.2328
rd	-10.2332
▁forum	-10.2337
Metadata	-10.2339
doctrine	-10.2341
CN	-10.2347
gray	-10.2368
#	-10.2368
▁hostapd	-10.2369
_10_	-10.237
pokemon	-10.2374
ld	-10.2374
pokedex	-10.2378
hg	-10.2384
day	-10.2399
Sql	-10.241
OG	-10.2412
Controllers	-10.2417
tk	-10.2421
silk	-10.243
androidTest	-10.2432
remove	-10.2436
news	-10.2446
wn	-10.2454
ho	-10.2459
halflings	-10.2462
plist	-10.2463
unittest	-10.2463
bat	-10.2483
selenium	-10.2489
39	-10.2492
operations	-10.2494
▁Tests	-10.2498
patches	-10.2507
62	-10.2507
tutorial	-10.2541
▁documentation	-10.255
134/	-10.255
From	-10.2553
▁R	-10.2562
33	-10.2564
level	-10.2565
scope	-10.2579
nn	-10.2582
ResourceManager	-10.2583
mdpi	-10.2584
Windows	-10.259
ment	-10.2602
Status	-10.2602
▁tmp	-10.2619
IT	-10.2621
software	-10.2632
qs	-10.2633
dep	-10.2637
_13_	-10.2641
general	-10.2659
bio	-10.2662
By	-10.2675
lv	-10.2691
Operation	-10.2704
maven	-10.2704
Locale	-10.2715
handlers	-10.274
bi	-10.274
beans	-10.2741
defaults	-10.2747
qml	-10.2757
/0.30.4/	-10.2759
join	-10.276
EFM	-10.2764
manual	-10.2765
empty	-10.2769
▁aws	-10.2788
Neos	-10.28
-8.8/	-10.2802
Tool	-10.2808
noticia	-10.2816
85	-10.2823
Display	-10.2825
special	-10.2825
ha	-10.2829
ive	-10.2831
iter	-10.2834
green	-10.2845
camera	-10.285
linter	-10.287
Details	-10.2873
real	-10.288
led	-10.2886
nt	-10.2888
AgitPOV	-10.2894
Azure	-10.2906
profiles	-10.2911
_9_	-10.2911
pure	-10.2916
▁env	-10.2921
4.2	-10.2921
Device	-10.2921
localedata	-10.2922
_20_	-10.2925
viewer	-10.2926
serial	-10.2927
Auth	-10.293
Fixtures	-10.2935
slice	-10.2935
Select	-10.2939
41	-10.2962
av	-10.2975
lint	-10.2975
entries	-10.2977
everyauth	-10.2982
stub	-10.299
88	-10.2993
fetch	-10.2996
_15_	-10.2999
Help	-10.3001
download	-10.3006
Sim	-10.3009
exception	-10.3009
robot	-10.3009
Date	-10.3012
ver	-10.3013
ku	-10.3017
Logging	-10.3031
DOM	-10.3039
datasheet	-10.3045
Site	-10.3047
pattern	-10.3058
▁testrunner	-10.3061
▁Lesson	-10.3063
devices	-10.3068
▁01/	-10.3072
oc	-10.3073
Temp	-10.3086
https	-10.3087
alt	-10.3098
2012	-10.311
AS	-10.3111
folder	-10.3121
minimist	-10.313
Feature	-10.3131
83	-10.3139
validate	-10.3141
81	-10.3146
abstract	-10.3155
globals	-10.3165
Mapping	-10.317
haml	-10.3171
Instance	-10.318
irq	-10.3183
chrome	-10.3196
Mock	-10.3204
entities	-10.3221
Hammer	-10.3225
cbp	-10.3238
ibm	-10.3248
rm	-10.3258
ty	-10.3258
workers	-10.3265
Digits	-10.3269
36	-10.3275
sa	-10.3276
11-	-10.3279
ry	-10.3296
~	-10.33
Pre	-10.3313
decoder	-10.3318
flash	-10.332
team	-10.3325
Delete	-10.3325
websocket	-10.3333
machine	-10.3335
Stack	-10.3335
OS	-10.3343
-1.1	-10.3348
que	-10.3348
clone	-10.335
full	-10.3352
GB	-10.3353
/3.15.0/	-10.3356
AssemblyInfo	-10.3362
cookie	-10.3376
Prefabs	-10.3379
selector	-10.338
token	-10.338
colors	-10.3382
▁analysis	-10.3389
providers	-10.3394
As	-10.3405
za	-10.3415
land	-10.3417
can	-10.3418
_25_	-10.3425
mon	-10.3425
gmock	-10.3426
ReactiveCocoa	-10.3427
navigation	-10.3427
▁solr	-10.3431
xhdpi	-10.3436
last	-10.3437
paper	-10.3445
winston	-10.3448
Features	-10.3455
Login	-10.3456
deploy	-10.3468
iframe	-10.3488
sparc	-10.3491
games	-10.3492
On	-10.3497
▁example	-10.3505
scoped	-10.3511
part	-10.3517
NamePending	-10.3531
OpenHeart	-10.3531
pg	-10.3535
sleuthkit	-10.3556
Formula	-10.3559
definitions	-10.3559
craft	-10.3565
guzzle	-10.3567
Portable	-10.3572
libsass	-10.3573
directives	-10.3575
Import	-10.3584
gr	-10.3599
DS	-10.3602
ator	-10.3608
wrappers	-10.361
Cell	-10.361
Runtime	-10.3612
JodaTime	-10.3624
Google	-10.3629
Files	-10.3631
2016	-10.3632
cpython	-10.3633
-6.5.1/	-10.3634
Flow	-10.3636
typeof	-10.3638
▁helpers	-10.3643
49	-10.3643
mgmt	-10.3645
snap	-10.3652
filemanager	-10.3661
drop	-10.3662
84	-10.3663
glsl	-10.3667
Designer	-10.3669
_14_	-10.367
Program	-10.3671
clock	-10.3672
GL	-10.3679
dao	-10.3684
ance	-10.3687
scheduler	-10.3699
zsh	-10.3699
shape	-10.3699
attr	-10.3703
▁Resources	-10.3716
clj	-10.3728
Environment	-10.373
_1_1	-10.373
▁javadoc	-10.3733
▁Coding	-10.3733
xaml	-10.3734
▁views	-10.3735
repeat	-10.3741
▁0.17/_	-10.3743
javafx	-10.3752
prompt	-10.3756
escope	-10.3757
Schema	-10.3758
SampleAssets	-10.3761
Export	-10.3762
ny	-10.3778
ize	-10.379
Native	-10.3795
signin	-10.3807
plain	-10.382
mipmap	-10.3824
Label	-10.383
emulator	-10.3851
live	-10.3862
title	-10.3867
VASSAL	-10.3883
34	-10.3887
kubernetes	-10.3889
105	-10.3901
fuzz	-10.3902
500	-10.3915
Tab	-10.3921
Converter	-10.3921
▁platform	-10.3926
Nature	-10.3926
deep	-10.3927
move	-10.3931
twitter	-10.3932
Feed	-10.3939
Resolver	-10.3942
routing	-10.3964
bo	-10.3968
launch	-10.3969
art	-10.3978
ut	-10.398
abilities	-10.398
xt	-10.3982
nio	-10.3983
Matrix	-10.3984
96	-10.3988
Load	-10.3992
ez	-10.3993
stage	-10.4003
Thread	-10.4008
course	-10.4014
Buffer	-10.402
nc	-10.4024
xxhdpi	-10.4026
materials	-10.4031
downloads	-10.4037
selection	-10.4042
push	-10.4048
▁Marlin	-10.4051
groups	-10.4072
dl	-10.4073
unsupported	-10.4073
uncss	-10.4073
sqlite	-10.4083
Global	-10.4089
89	-10.4091
xlf	-10.4105
HAL	-10.4107
yellow	-10.4111
Location	-10.4125
dataset	-10.4125
underscore	-10.4128
du	-10.4143
▁themes	-10.4143
Xml	-10.415
Db	-10.4158
Python	-10.4169
Number	-10.4173
headers	-10.4177
perl	-10.418
ke	-10.418
om	-10.4182
Twig	-10.4183
Out	-10.4184
PHP	-10.4187
02-	-10.4189
sky	-10.4201
collect	-10.4209
61	-10.4211
Annotation	-10.4213
sum	-10.4215
Icons	-10.4217
Range	-10.4219
mn	-10.4222
wav	-10.423
roo	-10.4231
hal	-10.4231
▁(	-10.4233
▁software	-10.4242
ics	-10.4244
Android	-10.4251
93	-10.4261
word	-10.4265
HoloToolkit	-10.4266
Depend	-10.4272
lin	-10.4272
wikimediaui	-10.4275
apple	-10.4277
scan	-10.4279
homeassistant	-10.4288
100.	-10.4288
eot	-10.4291
builtin	-10.4291
stubs	-10.4291
▁py	-10.4292
3.0	-10.4301
ag	-10.4301
2.0/	-10.4307
_17_	-10.4308
let	-10.4311
115	-10.4318
Bean	-10.4318
community	-10.4327
Light	-10.433
fixed	-10.4337
Customer	-10.4339
Parameter	-10.434
Php	-10.434
Co	-10.4343
57	-10.4345
xmlbuilder	-10.4348
resolver	-10.4354
proc	-10.4358
curve	-10.4365
pixie	-10.4372
rss	-10.4374
uuid	-10.4375
oo	-10.4376
iso	-10.4376
gp	-10.4384
plat	-10.4385
240.	-10.4405
pass	-10.4407
NodeTypes	-10.4414
Messages	-10.442
US	-10.4426
92	-10.4428
Start	-10.4447
▁archive	-10.4448
07-	-10.4464
Record	-10.4464
nix	-10.4465
notification	-10.4467
BU	-10.4471
energy	-10.4491
UnitTests	-10.4497
footer	-10.4499
yhelp	-10.45
spark	-10.4505
libWebCore	-10.4509
99	-10.4513
Up	-10.452
swear	-10.4523
units	-10.4525
2015	-10.4529
dk	-10.4544
▁Vendor	-10.4547
exec	-10.4549
timer	-10.4551
tc	-10.4551
destructuring	-10.4553
expansion	-10.4565
keep	-10.457
dma	-10.4571
Qt	-10.4574
statistics	-10.4593
Host	-10.4595
AR	-10.4598
codemod	-10.4605
binding	-10.461
▁android	-10.4621
uapi	-10.4623
inspector	-10.4623
snippet	-10.4624
etc	-10.4634
molgenis	-10.4634
tunnel	-10.4638
term	-10.4641
phtml	-10.4646
DE	-10.465
pdb	-10.4653
Generic	-10.4665
_4_	-10.4665
ox	-10.4689
keyboard	-10.4692
azure	-10.4694
03.	-10.4695
Enum	-10.4697
Maven	-10.4704
emoticons	-10.4706
119	-10.471
▁o	-10.4726
rocksdb	-10.4727
iron	-10.4732
Logger	-10.4737
workflow	-10.4742
gaze	-10.4744
implementation	-10.4751
exe	-10.4752
changelogs	-10.4759
stdlib	-10.4771
curves	-10.4776
category	-10.478
tl	-10.4781
regions	-10.4786
Chick	-10.4787
classic	-10.4791
▁icons	-10.4798
retail	-10.4804
off	-10.4808
way	-10.4817
mapping	-10.4817
chunk	-10.4823
standard	-10.4828
sequence	-10.4833
age	-10.4833
jsdom	-10.4834
theming	-10.4839
configure	-10.4847
mbedtls	-10.4851
94	-10.4853
TestCase	-10.4855
▁models	-10.486
profiler	-10.4865
gzip	-10.4867
VisualStudio	-10.4868
Azs	-10.4868
gu	-10.4886
stock	-10.4888
apply	-10.4899
Validation	-10.4904
names	-10.4907
fontawesome	-10.4913
hy	-10.4914
▁project	-10.4918
37	-10.492
Column	-10.492
fspotcloud	-10.4922
dotenv	-10.4924
Eigen	-10.4928
adapters	-10.4928
Browser	-10.4931
byte	-10.4935
prod	-10.4942
remoting	-10.4952
▁S	-10.4958
each	-10.4961
OAuth	-10.4963
UdemyUniversal	-10.4963
_23_	-10.4966
parties	-10.4975
dvb	-10.4977
large	-10.4981
outputs	-10.4983
Step	-10.4984
nb	-10.4986
cal	-10.4986
etcd	-10.4988
lr	-10.4995
nan	-10.4996
simulator	-10.4999
params	-10.5001
JavaScriptCore	-10.5001
radio	-10.5002
ot	-10.5009
vo	-10.5011
Material	-10.5011
notify	-10.5012
Catalog	-10.5023
addon	-10.5031
uni	-10.5034
blob	-10.5043
Tails	-10.5045
Here	-10.5048
mtrl	-10.5054
Tile	-10.5056
generators	-10.5069
draft	-10.5073
Setup	-10.5073
codegen	-10.5077
_19_	-10.508
prefs	-10.5082
signal	-10.5083
GPUImage	-10.5085
04.	-10.5088
variant	-10.5089
dis	-10.5091
.1620035988259/	-10.5096
Email	-10.5104
ros	-10.5117
apimgt	-10.512
▁demo	-10.5124
.1611925430698/	-10.5126
mt	-10.5133
intel	-10.5139
acorn	-10.5146
innodb	-10.515
Iterator	-10.5162
qunit	-10.5166
Vector	-10.517
egit	-10.5178
▁inc	-10.5182
▁ifs	-10.5188
fake	-10.519
ipv	-10.5199
Sync	-10.5203
labs	-10.5203
cil	-10.5207
csstudio	-10.5212
Remote	-10.5218
registration	-10.5224
sq	-10.5224
vesuvius	-10.5224
GA	-10.5228
Sources	-10.523
strong	-10.5241
contacts	-10.5245
trans	-10.525
cell	-10.5254
jo	-10.5254
102	-10.5257
SVG	-10.5258
label	-10.5269
postmessage	-10.527
skel	-10.5274
office	-10.5284
extend	-10.5288
▁UnityProject	-10.5289
dhis	-10.5289
assert	-10.5302
Op	-10.5306
some	-10.5309
stm	-10.5311
buttons	-10.5313
migration	-10.5314
256	-10.5315
Id	-10.5321
Latn	-10.5322
encryption	-10.5322
publish	-10.5331
Category	-10.5334
adaptor	-10.5337
▁kernel	-10.534
50.	-10.5341
Async	-10.5344
_21_	-10.535
bt	-10.5352
ubuntu	-10.5353
77	-10.5354
Ex	-10.5361
PyQt	-10.5366
95	-10.5366
wizard	-10.5372
gpio	-10.5374
canvg	-10.5391
freetype	-10.5393
tx	-10.5395
hub	-10.5398
connector	-10.5403
blink	-10.5406
ignore	-10.5411
tabs	-10.5414
uml	-10.5422
dummy	-10.5434
address	-10.544
Authentication	-10.544
simplebar	-10.5444
Libraries	-10.545
Generated	-10.5452
ak	-10.5453
ExtensionSDK	-10.5455
assemble	-10.5459
yii	-10.5462
constructor	-10.5467
Graphics	-10.5469
studio	-10.5474
swiftmailer	-10.5479
Prototypes	-10.548
ary	-10.5484
brace	-10.5484
ber	-10.5486
Chat	-10.5487
St	-10.5495
Channel	-10.5502
iotivity	-10.551
▁A	-10.551
ram	-10.552
Font	-10.552
erl	-10.552
Point	-10.5522
modern	-10.5522
Binary	-10.5523
▁m	-10.5527
quick	-10.5527
tracker	-10.5529
genome	-10.553
isarray	-10.5537
wrap	-10.5538
▁containers	-10.554
hover	-10.5547
flies	-10.556
Ad	-10.5562
67	-10.5565
America	-10.5567
programs	-10.5568
terminal	-10.5579
_01.	-10.5579
sig	-10.5589
slim	-10.5589
▁gdb	-10.5597
sale	-10.5604
Black	-10.5607
expression	-10.5608
modal	-10.5611
jee	-10.5611
num	-10.5614
Not	-10.5616
calc	-10.562
ctools	-10.5622
karma	-10.5624
dict	-10.5626
tst	-10.5632
center	-10.5635
fx	-10.5638
ShaderCache	-10.5639
Int	-10.5653
1.0/	-10.5654
program	-10.5654
Go	-10.5661
ling	-10.5662
ate	-10.5667
broker	-10.5668
Seek	-10.5668
updates	-10.5673
comments	-10.5673
▁ww	-10.5674
Formatter	-10.5677
constant	-10.568
shader	-10.5682
ice	-10.5682
tri	-10.5685
▁branches	-10.5688
little	-10.5688
ID	-10.5693
000	-10.5706
Implementation	-10.5707
linear	-10.5716
password	-10.5717
▁testsuite	-10.5727
scroll	-10.5727
vt	-10.5734
designer	-10.574
are	-10.5743
wx	-10.5748
tion	-10.5752
UserInterface	-10.5758
weather	-10.5759
concept	-10.5777
pbxproj	-10.5778
photo	-10.5779
Work	-10.578
Serializer	-10.578
side	-10.579
Integration	-10.5795
▁Ship	-10.5798
col	-10.5802
jena	-10.5803
Sailing	-10.5804
Mapper	-10.5805
Mesh	-10.581
ndb	-10.5816
Sprites	-10.5816
59	-10.5819
smart	-10.582
_16_	-10.5824
Change	-10.5827
qu	-10.5837
ist	-10.584
150	-10.5842
jboss	-10.5847
Theme	-10.5848
Card	-10.5849
/8.5.2/	-10.585
wiki	-10.5858
2010	-10.5858
pd	-10.5861
ScriptDev	-10.5863
equal	-10.5864
apacheds	-10.587
gi	-10.5872
der	-10.5874
compose	-10.5874
mesh	-10.5875
depend	-10.5884
peer	-10.5894
sip	-10.5896
rspec	-10.5899
zone	-10.59
▁dep	-10.5901
745	-10.5903
Meta	-10.5913
cert	-10.5914
crypt	-10.5915
geotools	-10.5915
rel	-10.5915
structure	-10.5924
series	-10.5924
low	-10.5924
extract	-10.5925
509	-10.5929
2013	-10.5946
fragment	-10.5948
FrontEnd	-10.5948
SM	-10.5948
▁ext	-10.5957
patterns	-10.5957
stringify	-10.5958
▁account	-10.596
require	-10.5963
answer	-10.5974
Analysis	-10.5976
ML	-10.5983
72	-10.5998
operation	-10.5999
fl	-10.6001
NS	-10.6002
▁debian	-10.6004
Def	-10.6007
Constants	-10.6015
Screen	-10.6018
mr	-10.602
john	-10.6021
az	-10.6025
when	-10.603
reset	-10.603
glm	-10.6031
np	-10.6037
▁spring	-10.6042
TEST	-10.6047
ender	-10.6049
documentation	-10.605
nodebb	-10.6056
invert	-10.6056
fit	-10.6063
Count	-10.6072
▁Formula	-10.6084
▁g	-10.6089
del	-10.609
Performance	-10.6094
MSHTML	-10.6095
Hash	-10.6098
cn	-10.6099
Run	-10.6106
keycloak	-10.6107
distribution	-10.6108
69	-10.6112
mu	-10.6116
pipe	-10.6119
mustache	-10.6121
ST	-10.6124
dataflow	-10.6136
CBP	-10.6148
fckeditor	-10.6155
idl	-10.6157
▁j	-10.6157
Route	-10.6169
gem	-10.6169
execution	-10.6177
carla	-10.6178
embedded	-10.6184
External	-10.6188
rancher	-10.6188
Callback	-10.6196
pydev	-10.6197
Right	-10.62
Role	-10.62
docx	-10.6207
_24_	-10.6207
utf	-10.6221
long	-10.6225
pangyp	-10.623
Vi	-10.6231
fat	-10.6241
ok	-10.6248
BUILD	-10.6256
press	-10.626
defs	-10.6272
weinre	-10.6283
Strategy	-10.6283
ct	-10.6283
terraform	-10.6283
Html	-10.6286
debian	-10.6288
square	-10.629
98	-10.629
parent	-10.6296
gdb	-10.6302
CC	-10.6305
codec	-10.631
sidebar	-10.6319
phpexcel	-10.633
Is	-10.633
ana	-10.6332
seq	-10.6338
flex	-10.6339
Mod	-10.6339
Gen	-10.6341
).	-10.6344
final	-10.6345
82	-10.6361
Find	-10.6362
Pass	-10.6381
otr	-10.6383
Doc	-10.6385
sandbox	-10.6386
writer	-10.6393
Mobile	-10.6403
(	-10.6419
mx	-10.6419
Axis	-10.6421
tp	-10.6436
ada	-10.6441
ian	-10.6442
106	-10.6442
transaction	-10.6442
Mail	-10.6445
UnitTest	-10.645
specialchar	-10.6456
AMS	-10.6456
Read	-10.6459
Geometry	-10.6469
/8.8.0/	-10.6483
Comment	-10.6485
87	-10.6495
close	-10.65
steps	-10.6503
vis	-10.6504
Url	-10.6504
Readme	-10.6505
packet	-10.6509
exercises	-10.6511
ath	-10.6513
CS	-10.6517
directive	-10.652
Packages	-10.6528
ni	-10.6532
Office	-10.6532
Mode	-10.6533
yo	-10.6539
son	-10.6547
oxygen	-10.6548
receiver	-10.655
Redux	-10.6553
placeholder	-10.6559
km	-10.6563
factor	-10.6564
rmi	-10.6565
1.0.	-10.6566
optimist	-10.6566
Sharp	-10.6567
psd	-10.657
▁sale	-10.657
111	-10.6572
▁base	-10.658
Registry	-10.6581
ser	-10.6585
readdirp	-10.6588
shop	-10.6593
golden	-10.6598
▁system	-10.6602
▁man	-10.6602
rw	-10.6603
Usage	-10.6606
▁Sources	-10.6607
ino	-10.6608
noconflict	-10.6609
wl	-10.6609
openstack	-10.6613
priv	-10.6631
good	-10.6632
uri	-10.6645
lir	-10.6649
charset	-10.6657
▁T	-10.6661
mocha	-10.6665
scenarios	-10.6666
compress	-10.6671
daemon	-10.6672
xcscheme	-10.6686
Serialization	-10.6686
ep	-10.6686
1000	-10.6702
reports	-10.6707
payment	-10.6709
Effect	-10.671
ek	-10.671
FCKeditor	-10.6715
Apps	-10.6718
++/	-10.672
Me	-10.6721
minified	-10.6724
wifi	-10.6725
people	-10.6743
rf	-10.6757
Bold	-10.676
Detail	-10.6761
Policy	-10.6764
extraction	-10.6765
loop	-10.6773
001	-10.6774
categories	-10.6782
Con	-10.6784
after	-10.6793
Transport	-10.6794
vesse	-10.6796
ness	-10.6797
sshpk	-10.6808
ence	-10.6812
DBs	-10.6815
urls	-10.6819
endpoint	-10.6828
Mo	-10.6831
face	-10.6834
05.	-10.6835
graceful	-10.6836
bullet	-10.6836
thumb	-10.6839
Gui	-10.6842
respect	-10.6844
300	-10.6844
bom	-10.6853
ten	-10.6853
detect	-10.6855
Address	-10.6858
discrete	-10.6858
late	-10.6862
97	-10.6863
magma	-10.6866
tra	-10.6871
▁shuup	-10.6872
02_	-10.6874
expand	-10.6877
wi	-10.6888
zi	-10.6896
RE	-10.6896
sensor	-10.6904
ig	-10.6912
namespace	-10.6913
elasticsearch	-10.6917
Contrib	-10.692
shaders	-10.6922
Memory	-10.6944
-1.10.2.	-10.6945
/1.6-	-10.6955
devicetree	-10.6958
rq	-10.6959
End	-10.6959
_1_61	-10.696
-35.	-10.6964
Assembly	-10.6965
serializer	-10.6967
more	-10.6971
Ogre	-10.6977
air	-10.6982
industry	-10.6988
apereo	-10.699
2011	-10.6998
IN	-10.7005
any	-10.7022
environment	-10.7023
customer	-10.7043
▁recipes	-10.7044
ACE	-10.7053
annotation	-10.7054
Ionicons	-10.7055
hardware	-10.7062
area	-10.7072
ua	-10.7073
room	-10.7076
hl	-10.7083
three	-10.7084
two	-10.7086
Back	-10.7088
Notification	-10.7088
thirdparty	-10.7088
boards	-10.7089
documenteditor	-10.7091
Consumer	-10.7092
sap	-10.7093
Scenes	-10.7094
uint	-10.7095
Labs	-10.7099
Translations	-10.7108
wm	-10.711
atom	-10.711
hive	-10.7111
emoji	-10.7114
▁testdata	-10.7116
streams	-10.7116
jobs	-10.712
IP	-10.7122
ster	-10.7123
PS	-10.7129
started	-10.7129
eval	-10.713
Linear	-10.7132
ssh	-10.7133
rendering	-10.7137
▁contrib	-10.714
Character	-10.7141
frameworks	-10.7142
datatables	-10.7145
catalog	-10.7145
high	-10.7149
xcuserdata	-10.7151
deployment	-10.7152
gov	-10.7153
Option	-10.7159
TW	-10.716
fire	-10.7161
mer	-10.7167
forge	-10.7168
preprocessor	-10.7169
STM	-10.7175
▁Content	-10.7184
trunk	-10.7189
Forms	-10.7189
bu	-10.719
ipxe	-10.7196
openvpn	-10.7196
Protocol	-10.7202
hello	-10.7204
Tasks	-10.7205
zu	-10.7213
AFNetworking	-10.7218
editors	-10.7218
incl	-10.7221
66	-10.7224
iconv	-10.7233
htmlparser	-10.7238
ttl	-10.7248
Team	-10.7255
Power	-10.7263
ens	-10.7267
ki	-10.7269
nu	-10.7271
ite	-10.7273
zo	-10.7273
amp	-10.7275
scenario	-10.7277
hoist	-10.7282
su	-10.7283
8.1/	-10.7284
teen	-10.729
neon	-10.729
intellij	-10.7293
sln	-10.7297
2.1/	-10.7303
effect	-10.731
boss	-10.7315
73	-10.7324
Section	-10.7327
acceptance	-10.7331
World	-10.7338
every	-10.734
Helpers	-10.7348
zen	-10.7349
dropdown	-10.7354
Streams	-10.736
jvm	-10.7363
bn	-10.7365
nested	-10.737
once	-10.7376
defconfig	-10.7376
osgi	-10.7381
/2016-	-10.7383
Workspace	-10.7383
Po	-10.7387
Size	-10.7387
coreos	-10.7396
compliance	-10.7399
algorithms	-10.7406
Pool	-10.7415
doxygen	-10.742
developer	-10.742
nano	-10.7426
babylon	-10.743
Upload	-10.7431
built	-10.7433
Socket	-10.7435
overrides	-10.7435
shadow	-10.7439
specs	-10.7442
620/	-10.7444
numeric	-10.7445
draw	-10.7446
Copy	-10.7447
▁extjs	-10.7462
Navigation	-10.7468
roles	-10.7469
simulation	-10.7476
tm	-10.7478
StackAdmin	-10.7484
▁engine	-10.7486
Geo	-10.7494
MP	-10.7496
kerberos	-10.7499
rimraf	-10.7506
IR	-10.7509
guides	-10.751
ax	-10.7517
▁Co	-10.7535
enum	-10.754
Viewer	-10.7544
exceptions	-10.7549
LF	-10.7563
macosx	-10.7571
mix	-10.7575
Rules	-10.7578
dependency	-10.7584
glass	-10.7584
Ro	-10.7588
WebRoot	-10.7591
effects	-10.7598
overview	-10.7599
health	-10.7599
finder	-10.7601
par	-10.7604
mark	-10.7606
726	-10.7617
shelljs	-10.7617
▁csharp	-10.7618
portfolio	-10.7625
schemas	-10.7628
Logic	-10.7638
encoding	-10.7643
Runner	-10.7643
position	-10.7644
Space	-10.7645
processing	-10.7645
dsl	-10.7645
Blade	-10.7646
sax	-10.7647
gs	-10.7648
tsconfig	-10.7654
▁pack	-10.7654
uc	-10.7656
okhttp	-10.7658
papers	-10.7659
Software	-10.7662
alienv	-10.7662
checks	-10.7667
Shaders	-10.7667
SQL	-10.7668
january	-10.7669
disk	-10.7674
manage	-10.7684
GoogleMaps	-10.7685
Permission	-10.7689
Routing	-10.7693
alpine	-10.7693
spa	-10.7697
▁Samples	-10.7698
Bg	-10.7702
overlay	-10.7702
invalid	-10.7703
descriptors	-10.771
sections	-10.7712
Book	-10.7712
mono	-10.7716
=	-10.7717
sec	-10.7717
algorithm	-10.7725
double	-10.7732
▁jena	-10.7734
Tracker	-10.7738
phocagallery	-10.7748
ue	-10.7754
3.3.1/	-10.7756
315	-10.7757
clear	-10.7758
bad	-10.7759
args	-10.7762
hbs	-10.7763
price	-10.7778
scr	-10.7778
scheduling	-10.778
Ref	-10.7787
dec	-10.779
camel	-10.7792
Sequence	-10.7803
▁framework	-10.7804
formats	-10.7804
pub	-10.7807
textures	-10.7815
Controls	-10.7816
jpeg	-10.7816
dia	-10.7818
layers	-10.7818
dependencies	-10.7829
cm	-10.783
_0/	-10.7835
Be	-10.7837
ring	-10.7846
dt	-10.7848
▁Classes	-10.7854
gogo	-10.7862
Collector	-10.7862
emu	-10.7867
Statement	-10.7868
gnu	-10.7868
queries	-10.7875
Actions	-10.7879
URL	-10.7903
car	-10.7906
Password	-10.7908
▁M	-10.7913
redux	-10.7916
blade	-10.7918
woocommerce	-10.7923
▁v	-10.7926
Symbol	-10.7927
MySQL	-10.7932
implemented	-10.7935
pan	-10.7942
▁docker	-10.7952
▁a	-10.7954
globalpom	-10.7961
publisher	-10.7968
story	-10.7969
Camera	-10.7971
Pages	-10.7978
Dependency	-10.7978
Row	-10.7979
experimental	-10.798
▁Force	-10.7981
profiling	-10.7988
ServiceImpl	-10.7991
Transform	-10.7998
NET	-10.7999
JSON	-10.8001
hooks	-10.8001
ju	-10.8006
attribute	-10.8015
ica	-10.8023
postgres	-10.8026
disabled	-10.8028
ctrl	-10.8033
tv	-10.8042
mb	-10.8044
bash	-10.805
Single	-10.8052
ang	-10.8054
creator	-10.806
outline	-10.8062
▁and	-10.8073
inl	-10.8084
arg	-10.8085
grappelli	-10.8093
▁workflow	-10.8101
60.	-10.811
column	-10.8119
wait	-10.8121
article	-10.8129
86.	-10.8132
▁coding	-10.8133
mindtouch	-10.8134
Contact	-10.8134
pressed	-10.814
efm	-10.8146
Shader	-10.8151
tcp	-10.8157
flag	-10.8159
geom	-10.8161
webhelp	-10.8169
Monitor	-10.8171
implement	-10.8171
sheet	-10.8173
lm	-10.8179
▁pkgs	-10.818
_48	-10.8197
-4.1.7/	-10.82
round	-10.8204
jfree	-10.8209
)/	-10.8211
lists	-10.8213
chi	-10.8216
BillFold	-10.8216
ship	-10.8217
traits	-10.8219
multiple	-10.8221
broad	-10.8223
backends	-10.8225
converter	-10.8237
reverse	-10.8241
jfreechart	-10.8242
sksl	-10.8243
track	-10.8244
ids	-10.8247
600	-10.8249
transformers	-10.8255
izer	-10.8267
Print	-10.8267
water	-10.8268
▁oci	-10.8276
bundles	-10.8276
Dynamic	-10.828
section	-10.8282
ptr	-10.8284
primitive	-10.8288
Texture	-10.8295
htmlpurifier	-10.83
React	-10.8309
prefix	-10.8314
▁install	-10.8314
statespace	-10.8318
original	-10.8323
▁bingo	-10.8324
Tutorial	-10.8325
gauge	-10.8325
supports	-10.8333
▁sys	-10.8338
yicons	-10.834
like	-10.8355
holo	-10.836
Variable	-10.8361
norm	-10.8364
Website	-10.8365
loading	-10.8369
jasmine	-10.8375
SS	-10.8377
Directory	-10.8377
▁i	-10.8379
notation	-10.8383
zero	-10.8383
complex	-10.8389
pictograms	-10.839
thing	-10.8397
Agent	-10.8399
strict	-10.8404
illa	-10.841
nib	-10.841
qa	-10.841
future	-10.8417
Ho	-10.8423
/$.	-10.8425
sam	-10.8426
sel	-10.8426
localization	-10.8427
▁shared	-10.8429
member	-10.8431
386	-10.8433
exports	-10.8433
Mac	-10.8434
mgt	-10.8437
48.	-10.8439
twist	-10.844
leafCommerceDemo	-10.8442
topics	-10.845
ck	-10.8456
002.	-10.8458
iterating	-10.8459
ABM	-10.8461
tw	-10.8465
fu	-10.8473
,	-10.8474
sSeq	-10.8481
Bridge	-10.8485
JavaAgent	-10.8485
tensorics	-10.8485
tianma	-10.8493
Body	-10.8493
Position	-10.8493
-1.0.19/	-10.8502
Calendar	-10.851
gnome	-10.8511
wpa	-10.8512
resize	-10.8513
concurrently	-10.8519
▁cmd	-10.8524
AsteroidsProject	-10.8527
nginx	-10.8527
ViewModel	-10.8531
Maps	-10.8533
istanbul	-10.8536
nodemailer	-10.8544
_22_	-10.8546
vars	-10.8548
Save	-10.8556
VEL	-10.8561
fabric	-10.8561
learning	-10.8562
ao	-10.8563
med	-10.8568
netfilter	-10.8573
openssl	-10.8574
Parameters	-10.8576
Sales	-10.8583
extractor	-10.8584
▁WordPress	-10.8586
TJPYingKe	-10.8587
kr	-10.859
ick	-10.8596
discovery	-10.8597
Selector	-10.8601
ix	-10.8605
Compat	-10.8605
ash	-10.8607
mtl	-10.8608
ctl	-10.8609
Matcher	-10.8609
tgz	-10.8623
ltr	-10.8624
meteor	-10.8632
Tune	-10.8633
▁sdk	-10.8634
blueprints	-10.864
vec	-10.864
101	-10.8643
ping	-10.8652
adv	-10.8653
BC	-10.8653
phy	-10.8654
Infinity	-10.8656
tls	-10.8662
kaazing	-10.8665
option	-10.8667
Delegate	-10.867
apk	-10.8673
Visitor	-10.8673
xen	-10.868
byuSuite	-10.8682
mar	-10.8682
smiley	-10.8683
AL	-10.8689
capture	-10.8699
AsyncDisplayKit	-10.8708
ImageEffects	-10.871
ik	-10.8714
mapper	-10.8716
emissary	-10.8716
cap	-10.8718
Download	-10.8719
120	-10.8721
Random	-10.8725
rpl	-10.8729
Non	-10.8738
GM	-10.8749
symbian	-10.8751
lookup	-10.8752
mali	-10.8756
lb	-10.8762
IceLan	-10.8764
mvc	-10.8764
popup	-10.8768
accounts	-10.8776
DO	-10.8778
sprite	-10.8781
1.3.3-	-10.8786
47.	-10.8789
sensors	-10.8791
enums	-10.8794
Items	-10.88
bam	-10.88
CA	-10.8802
compare	-10.8805
wa	-10.8808
Animation	-10.8809
levels	-10.8817
Identity	-10.8821
sparse	-10.8824
436	-10.8826
talk	-10.8826
corpus	-10.8831
poll	-10.8831
cart	-10.8833
border	-10.8836
xtend	-10.8838
dtsi	-10.884
113	-10.8842
pot	-10.8847
changelog	-10.8853
dy	-10.8855
planner	-10.8857
Gr	-10.8863
Environments	-10.8864
Remove	-10.8864
eo	-10.8868
got	-10.8868
ME	-10.8876
▁sli	-10.8887
executing	-10.8892
Scheduler	-10.8892
390/	-10.8899
Selection	-10.89
tic	-10.89
002	-10.89
gg	-10.8902
▁p	-10.8905
force	-10.8906
pu	-10.8906
param	-10.8909
uercus	-10.891
Plot	-10.8915
▁Lib	-10.8915
truffle	-10.8918
null	-10.8924
installer	-10.893
3.6/	-10.8932
branch	-10.8933
41.	-10.8934
arc	-10.8941
_70	-10.8942
magic	-10.8942
lcd	-10.8942
evaluation	-10.8945
gcc	-10.8947
64-	-10.8949
dr	-10.8949
/16/1	-10.8949
ug	-10.8949
114	-10.896
compact	-10.8964
ThirdParty	-10.8976
indent	-10.8981
notifications	-10.8983
mf	-10.8989
waterwheel	-10.8989
attributes	-10.8994
▁model	-10.8995
HTMLPurifier	-10.8999
Constraint	-10.9005
bson	-10.9008
07.	-10.9008
▁Unity	-10.9011
anim	-10.9015
flask	-10.9017
progressive	-10.9018
tensor	-10.9024
imx	-10.903
translation	-10.9033
props	-10.9037
fstream	-10.9038
without	-10.9039
▁ThirdParty	-10.904
Utility	-10.9056
brand	-10.9058
▁output	-10.9064
Releases	-10.9068
heap	-10.9069
topology	-10.9071
va	-10.9072
Slider	-10.9078
music	-10.9081
Plan	-10.9082
TK	-10.9082
skeleton	-10.9087
pretty	-10.9087
En	-10.9088
ebuild	-10.9088
lru	-10.909
csharp	-10.909
click	-10.9093
shoveler	-10.9097
solid	-10.9098
yang	-10.9105
width	-10.9106
slide	-10.9111
SA	-10.9115
Transaction	-10.9123
tutorials	-10.9129
metric	-10.9132
Trading	-10.9134
bluebird	-10.9134
abDB	-10.9146
pop	-10.9149
2016/	-10.915
foo	-10.9154
VM	-10.9157
val	-10.9161
shift	-10.9167
fixture	-10.9169
adoc	-10.9178
handle	-10.918
libawt	-10.9186
225	-10.9197
requirements	-10.9197
validators	-10.9198
parsers	-10.9206
-4.8.2.0/	-10.9206
lifecycle	-10.9207
ton	-10.9208
place	-10.921
note	-10.921
ze	-10.9211
AP	-10.9235
pw	-10.9239
Ui	-10.924
ray	-10.9243
openwms	-10.9243
panels	-10.9244
NA	-10.9246
sol	-10.9247
zing	-10.9249
Merge	-10.9256
08_	-10.9258
One	-10.9261
NF	-10.9268
hashicorp	-10.9271
tty	-10.9271
WindowsPhoneApp	-10.928
08.	-10.9281
TC	-10.9282
ome	-10.9284
EC	-10.9287
2007	-10.9288
OpenWrt	-10.9289
FileSystem	-10.9302
city	-10.9308
005	-10.9308
Design	-10.9313
-2015-03-25/	-10.9317
compositing	-10.9317
Installer	-10.932
alert	-10.9321
ppc	-10.9326
FR	-10.9348
▁Framework	-10.9351
▁applications	-10.9352
Asset	-10.9355
Mutation	-10.9363
Aws	-10.9368
servlet	-10.9372
La	-10.9378
INSTALLER	-10.9381
Alert	-10.9382
inverse	-10.9382
mediawords	-10.9383
spell	-10.9391
RAC	-10.9392
forward	-10.9392
lan	-10.9398
buf	-10.9399
now	-10.9399
Illuminate	-10.94
sta	-10.9406
▁Examples	-10.9407
Css	-10.9408
400	-10.9413
sci	-10.9416
Track	-10.9417
Sniff	-10.9419
Users	-10.942
exit	-10.9422
licenses	-10.9427
_1_1_0_	-10.943
bold	-10.9435
▁FRC	-10.9438
glaf	-10.9441
fpm	-10.9442
webkit	-10.9444
ner	-10.9449
desc	-10.9451
cover	-10.9452
IS	-10.9456
squareup	-10.9458
err	-10.9462
Do	-10.9464
696	-10.9465
MiaoLive	-10.9465
activesupport	-10.9473
fluid	-10.9475
rev	-10.9476
Py	-10.9488
-0.1	-10.9496
solutions	-10.9498
gt	-10.9501
SE	-10.9502
▁sirius	-10.9507
installation	-10.9511
HTTP	-10.9511
Rd	-10.9511
cagwas	-10.9512
ss	-10.9513
doctree	-10.9516
646	-10.9519
compass	-10.9524
ib	-10.9536
pic	-10.9537
Silicon	-10.9541
bbossaop	-10.955
Root	-10.9551
bean	-10.9555
ux	-10.9557
iv	-10.9558
flatiron	-10.956
toml	-10.9561
debugger	-10.9561
Git	-10.9563
/1.6.0/	-10.9569
evolutionary	-10.9569
counter	-10.957
mdl	-10.9571
tif	-10.9576
amcharts	-10.9579
Area	-10.958
nic	-10.9585
wc	-10.9585
sonar	-10.9592
▁de	-10.9594
▁open	-10.9601
conversion	-10.9602
Water	-10.9607
sharding	-10.961
sy	-10.9611
cron	-10.9616
thrive	-10.9616
elf	-10.9621
hh	-10.9627
Bi	-10.9628
▁geonode	-10.9628
jce	-10.963
recordings	-10.9645
rl	-10.9651
-2019	-10.9663
phoenix	-10.9664
/9/9	-10.9664
iphone	-10.9667
sprockets	-10.9674
/3.3.5	-10.9674
Static	-10.9684
initial	-10.9688
states	-10.9692
livereload	-10.9693
partial	-10.9694
crm	-10.9697
gh	-10.9701
Outlook	-10.9702
cloudify	-10.9706
Dao	-10.9707
fun	-10.9711
News	-10.9715
break	-10.9716
hex	-10.9719
gis	-10.9721
parts	-10.9722
LSD	-10.9726
sets	-10.973
tooltip	-10.9736
-4.0.1/	-10.9741
trap	-10.9744
Dashboard	-10.9748
quote	-10.9749
cx	-10.975
57.	-10.9751
▁lang	-10.9751
128	-10.9755
partition	-10.976
Term	-10.9763
72.	-10.9768
cobertura	-10.977
generation	-10.977
Stats	-10.9774
400.	-10.9777
parameter	-10.9781
Top	-10.9787
CL	-10.9788
▁sw	-10.9789
swap	-10.9789
playground	-10.9789
vmkapi	-10.9792
formatter	-10.9793
apiDocs	-10.9795
Blog	-10.9796
Sound	-10.9797
▁site	-10.9802
8.6/	-10.9806
Case	-10.9808
lisp	-10.9808
General	-10.9808
/15/15	-10.9812
stories	-10.9814
avr	-10.9816
axis	-10.9817
replacements	-10.9818
Reflection	-10.9828
rake	-10.983
▁profiles	-10.9833
jl	-10.9833
▁workspace	-10.9838
sphinx	-10.9842
Crypto	-10.9848
restify	-10.9861
inst	-10.9862
cost	-10.9865
▁sample	-10.9866
Sparkle	-10.9867
adaptors	-10.9872
Match	-10.9875
modernizr	-10.9877
Descriptor	-10.9886
shopping	-10.9887
Picker	-10.9888
deprecated	-10.9891
minimal	-10.9894
AI	-10.9898
plaf	-10.9898
ER	-10.99
/86/86	-10.9902
mal	-10.9903
business	-10.9906
▁gui	-10.991
sch	-10.9912
role	-10.9913
ning	-10.9913
pictos	-10.9916
Click	-10.9916
missing	-10.9917
▁Plugins	-10.9919
Empty	-10.9921
strategy	-10.9925
cockroachdb	-10.9925
/87/87	-10.9927
Part	-10.9928
rpt	-10.9931
UIConceptsSample	-10.9935
/4/4	-10.9939
og	-10.994
bm	-10.9941
hid	-10.9943
/85/85	-10.9946
/2/2	-10.9946
picker	-10.9952
Updates	-10.9953
div	-10.9963
poly	-10.9966
transfer	-10.9969
Guide	-10.997
001.	-10.9972
655	-10.9974
hibernate	-10.9975
Finder	-10.9975
screenshot	-10.9978
Null	-10.998
Switch	-10.9984
PK	-10.9985
/1/1	-10.9987
lens	-11.0004
SubdivisionCode	-11.0004
▁enyo	-11.0004
Title	-11.0004
/88/88	-11.0005
FB	-11.0008
secure	-11.001
UnityProject	-11.0014
versions	-11.0017
gm	-11.0019
/78/78	-11.0026
Max	-11.0028
overflow	-11.003
Lock	-11.0034
CWE	-11.0034
AST	-11.0039
khan	-11.0039
kuali	-11.0043
/72/72	-11.0045
▁old	-11.0046
Shape	-11.0048
deki	-11.0049
Manifest	-11.0053
Analytics	-11.0055
toolkit	-11.0055
ger	-11.0058
2018	-11.006
2009	-11.0061
42.	-11.0062
51.	-11.0063
&	-11.0064
acpi	-11.0065
ise	-11.0068
003.	-11.0069
baselines	-11.0073
jython	-11.0074
Current	-11.0081
ium	-11.0083
irrlicht	-11.0084
Interactive	-11.0084
species	-11.0085
nopt	-11.0091
den	-11.0094
/25/25	-11.0096
/5/5	-11.0096
Trans	-11.0102
TU	-11.0102
misocp	-11.0104
alloc	-11.0104
mg	-11.0104
quiz	-11.0106
/117/117	-11.0114
ability	-11.0114
reflection	-11.0115
svgo	-11.0119
gemspec	-11.0119
PAJ	-11.0125
MS	-11.0126
ier	-11.013
act	-11.0132
combined	-11.0133
direct	-11.0134
Long	-11.0135
Use	-11.0137
sourceforge	-11.0144
/3/3	-11.0145
logs	-11.0151
50/50	-11.0152
rk	-11.0153
/118/118	-11.0154
prepare	-11.0163
complete	-11.0167
ization	-11.0171
Adminhtml	-11.0173
/31/31	-11.0175
/73/73	-11.0177
▁var	-11.0183
executor	-11.0184
circle	-11.0184
monster	-11.0184
artifacts	-11.0184
getting	-11.0186
Bio	-11.0187
Dev	-11.0193
Move	-11.0198
visitor	-11.0198
its	-11.0199
checkstyle	-11.02
vcproj	-11.0204
004	-11.0206
$1.	-11.0208
timeline	-11.0214
institute	-11.0214
LaserDefender	-11.0214
▁ios	-11.023
ifier	-11.0243
Bin	-11.0246
512	-11.0254
survey	-11.0254
wave	-11.0257
110	-11.0259
Endpoint	-11.0259
ven	-11.0264
Batch	-11.0265
pie	-11.0267
commit	-11.0269
optin	-11.0273
ata	-11.0273
cris	-11.0279
bound	-11.0288
466	-11.0295
Toolkit	-11.0297
ial	-11.0298
blend	-11.03
867	-11.0303
PL	-11.0306
/26/26	-11.0307
bytes	-11.0307
_256	-11.0314
416	-11.0317
dataintegration	-11.0323
DateTime	-11.033
urogane	-11.0336
rec	-11.0338
uv	-11.0338
avro	-11.0341
msvc	-11.0345
/55/55	-11.0347
javancss	-11.0351
/57/57	-11.0357
/47/47	-11.0363
compilation	-11.0367
AD	-11.037
▁sharding	-11.0373
typescript	-11.0376
darwin	-11.0377
using	-11.0382
heart	-11.0384
Presenter	-11.0388
Lo	-11.039
Dis	-11.0392
viz	-11.0392
chef	-11.0395
ODSA	-11.0397
Music	-11.0398
sharing	-11.0399
contents	-11.0407
webdriver	-11.0408
wall	-11.0409
▁Exercises	-11.0409
ura	-11.0411
behavior	-11.0413
cam	-11.0414
linq	-11.0416
importer	-11.042
acl	-11.0422
jms	-11.0423
activerecord	-11.043
/21/21	-11.043
jasig	-11.043
invoice	-11.0431
fish	-11.0436
PT	-11.044
900	-11.044
/24/24	-11.0441
fw	-11.0443
Js	-11.0444
cg	-11.045
/49/49	-11.045
sinon	-11.0451
via	-11.0455
GameServer	-11.0455
Has	-11.0456
2.1.2/	-11.0457
rtc	-11.046
45.	-11.046
/30/30	-11.0461
Full	-11.0461
Loop	-11.0468
parallel	-11.047
/14/14	-11.0472
References	-11.0473
ddl	-11.0474
Payment	-11.0474
definition	-11.0475
fo	-11.0478
285	-11.048
Supplier	-11.048
/65/65	-11.0482
Cluster	-11.0496
Com	-11.0498
SP	-11.0507
Desktop	-11.0511
-1-13-	-11.0511
atomic	-11.0514
Lookups	-11.0516
fold	-11.0517
startup	-11.0517
pay	-11.0519
MF	-11.0521
Branch	-11.0521
eBay	-11.0524
▁Dist	-11.0534
MatrixBase	-11.0535
CM	-11.0536
360	-11.0541
ajv	-11.0543
/42/42	-11.0545
▁module	-11.0546
Condition	-11.0548
ill	-11.0548
findup	-11.0549
Pane	-11.055
Modal	-11.0551
HEADERS	-11.0553
▁BLD	-11.0553
toolbox	-11.0554
responsive	-11.0563
RC	-11.0572
CH	-11.0574
xtext	-11.0575
cube	-11.0576
▁Engine	-11.0579
2021	-11.0584
Encoder	-11.0584
pixel	-11.0585
03_	-11.0587
Folder	-11.0588
forks	-11.0589
irc	-11.059
loganalytics	-11.0591
Double	-11.0595
/48/48	-11.0606
eps	-11.0608
Var	-11.0609
openid	-11.0611
dmg	-11.0612
req	-11.0612
53.	-11.0612
▁Open	-11.0613
usr	-11.0614
return	-11.0618
structures	-11.062
demand	-11.0622
serv	-11.0628
picture	-11.0633
jshintrc	-11.0641
orm	-11.0642
sis	-11.0644
gfx	-11.0644
bmp	-11.0645
fly	-11.0645
jgroups	-11.0646
Hook	-11.0648
Instructions	-11.0653
▁rest	-11.0655
/0.11.4/	-11.0658
ARM	-11.0661
/22/22	-11.0661
Le	-11.0664
:_	-11.0667
RELEASE	-11.0668
bottom	-11.0668
▁raptor	-11.0668
▁mess	-11.0669
WebUI	-11.0672
xtb	-11.0675
const	-11.0677
-01-	-11.0678
review	-11.068
/69/69	-11.069
fm	-11.0691
Versioning	-11.0691
PSA	-11.0693
delay	-11.0693
/13/13	-11.0694
tro	-11.0703
nw	-11.0706
70.	-11.0708
/8/8	-11.0709
ORM	-11.0711
Foundation	-11.0721
bank	-11.0721
drv	-11.0722
_3_0_	-11.0727
splice	-11.0732
manifests	-11.0733
Generate	-11.0741
lucida	-11.0743
purple	-11.0753
pos	-11.0755
testDigits	-11.0755
Operator	-11.0758
435	-11.0759
125	-11.076
seed	-11.076
refactoring	-11.0764
articles	-11.0771
Border	-11.0775
DTS	-11.078
/12/12	-11.0783
eq	-11.0783
imp	-11.0783
audit	-11.0786
person	-11.0789
Worker	-11.0789
modulos	-11.0796
▁gcc	-11.0813
nlp	-11.0815
Compute	-11.0816
checkbox	-11.0818
cshtml	-11.0819
jni	-11.0821
Functional	-11.0821
hridge	-11.0824
analytic	-11.0824
intro	-11.0825
hellb	-11.0828
yarn	-11.0828
▁P	-11.083
protocols	-11.083
▁javafx	-11.0831
house	-11.0833
ized	-11.0835
Elements	-11.0838
gas	-11.0838
joomla	-11.0839
Show	-11.0841
Characters	-11.0842
/19/19	-11.0842
trigger	-11.0846
vcs	-11.0847
bugs	-11.0849
workflows	-11.085
Master	-11.0855
▁E	-11.0865
2013/	-11.0868
Chain	-11.0871
ble	-11.0871
Person	-11.0875
Ar	-11.0881
yahoo	-11.0882
matchers	-11.0889
firestore	-11.0896
within	-11.0896
crc	-11.0902
▁ubuntu	-11.0904
mouse	-11.0905
Asia	-11.091
▁roles	-11.0911
bcm	-11.0913
Include	-11.0914
_9/	-11.0915
Handle	-11.0917
Al	-11.092
listener	-11.0923
gadget	-11.0925
jaxrs	-11.0926
Notes	-11.093
/46/46	-11.093
coin	-11.0933
monolog	-11.0938
minifier	-11.0942
you	-11.0942
49.	-11.0944
59.	-11.0944
carousel	-11.0947
san	-11.0948
verify	-11.0951
80.	-11.0954
Cross	-11.0957
ish	-11.0959
▁Kinect	-11.0967
singular	-11.0968
CurrencyExchange	-11.0969
oh	-11.0969
VC	-11.0973
inter	-11.0978
300/	-11.0979
Spring	-11.098
quidCrystal	-11.098
xcworkspace	-11.0982
nat	-11.0984
SCS	-11.0988
ctype	-11.0988
minus	-11.099
walk	-11.0993
cis	-11.0996
datasource	-11.1
bluetooth	-11.1001
44.	-11.1008
pointer	-11.1008
62.	-11.1009
ky	-11.1011
bed	-11.1017
UIProcess	-11.1017
123	-11.1021
extender	-11.1027
xp	-11.1028
43.	-11.1031
ung	-11.1033
▁scraping	-11.1034
Invalid	-11.1034
wire	-11.1041
issues	-11.1042
20_	-11.1044
2011/.	-11.1047
Obj	-11.1048
Labels	-11.1053
Trace	-11.1055
Quick	-11.1056
▁tags	-11.1056
/2014/10/	-11.1056
acc	-11.1056
pf	-11.1058
Xl	-11.1058
notebooks	-11.1059
Exceptions	-11.1061
king	-11.1062
IntegrationTests	-11.1064
obeonetwork	-11.1067
RT	-11.1073
mailer	-11.1074
58.	-11.1074
thumbs	-11.1075
macro	-11.1076
OpenLayers	-11.1078
posix	-11.1081
Persistence	-11.1088
lg	-11.1089
od	-11.1094
cgb	-11.1097
Newli	-11.1097
workbench	-11.1102
II	-11.1102
consumer	-11.1111
CORE	-11.1112
spice	-11.1118
sms	-11.1121
▁etc	-11.1121
jekyll	-11.1123
Jekyll	-11.1123
351/	-11.113
/4.01.0/	-11.1144
fwd	-11.1145
▁Kernel	-11.1152
crystal	-11.1156
/116/116	-11.1156
Member	-11.1157
At	-11.1157
encoder	-11.1165
Left	-11.1167
Install	-11.1168
iz	-11.1171
-1.0	-11.1173
▁css	-11.1176
sf	-11.1179
▁Web	-11.1184
nv	-11.1188
liftoff	-11.1189
WebApp	-11.1189
cookbooks	-11.1197
Chrome	-11.1198
sb	-11.12
silicolife	-11.12
textmining	-11.12
je	-11.121
blackfin	-11.1212
changes	-11.1216
▁TI	-11.1221
enterprise	-11.1222
Background	-11.1222
/23/23	-11.1226
Operations	-11.1229
innovate	-11.1233
extensible	-11.1233
GE	-11.1235
styl	-11.1235
▁appcompat	-11.1237
snapshots	-11.1239
Information	-11.1245
droid	-11.1246
fenix	-11.1246
EditorFeatures	-11.1247
mame	-11.1249
DotNet	-11.1252
zoom	-11.1253
distributions	-11.1256
jndi	-11.1256
prismjs	-11.1258
syn	-11.1265
Aspose	-11.1267
loc	-11.127
-4.1/	-11.1271
rock	-11.128
CEGUI	-11.1281
CONTRIBUTING	-11.129
monitoring	-11.1291
Register	-11.1296
▁jp	-11.1298
fail	-11.13
75.	-11.1301
ph	-11.1306
networking	-11.1309
alibaba	-11.1312
Pack	-11.1313
Progress	-11.1314
Router	-11.1319
Description	-11.1321
octopus	-11.1323
/59/59	-11.1324
statement	-11.1335
csft	-11.1342
007	-11.1344
landing	-11.1355
▁Modules	-11.136
Wpf	-11.1363
lic	-11.1363
Constant	-11.1367
gerrit	-11.1368
Creator	-11.1369
Workspaces	-11.137
kk	-11.1378
better	-11.138
djinn	-11.138
BE	-11.1389
variable	-11.139
assignment	-11.1391
Development	-11.1391
cad	-11.1396
55.	-11.1396
Pattern	-11.1401
before	-11.1403
xib	-11.1405
vendors	-11.1407
codecs	-11.1409
2005	-11.1412
hunter	-11.1415
/68/68	-11.1415
tokens	-11.1415
gram	-11.1419
Godeps	-11.142
ipp	-11.1422
comm	-11.1424
algebra	-11.1425
mas	-11.143
/58/58	-11.1437
iconset	-11.1439
Applications	-11.1445
phantom	-11.1454
Bot	-11.1458
cards	-11.1464
OgreData	-11.1466
Decoder	-11.1472
/17/17	-11.1474
DataSource	-11.148
vectors	-11.148
Sky	-11.1485
Car	-11.1485
compiled	-11.1485
Region	-11.1486
couteau	-11.1494
RO	-11.1497
Pipeline	-11.1497
795	-11.15
focus	-11.1501
vx	-11.1502
Series	-11.1505
ticket	-11.1505
opennms	-11.1505
enveloprint	-11.1505
cursor	-11.1505
artifact	-11.151
rom	-11.1518
adi	-11.1526
▁alien	-11.1526
▁App	-11.1534
Connect	-11.1535
numbers	-11.1539
transition	-11.154
avatar	-11.1544
stone	-11.155
Kernel	-11.1554
character	-11.1554
isdn	-11.1556
ban	-11.1558
railties	-11.1563
fiesta	-11.1563
HISTORY	-11.1563
▁LAB	-11.1563
/81/81	-11.1564
cer	-11.1571
refresh	-11.1579
108	-11.1581
Gradle	-11.1586
solar	-11.1587
night	-11.1588
vert	-11.159
pem	-11.1592
mtd	-11.1594
NGUI	-11.1594
bourbon	-11.1598
▁mod	-11.1598
003	-11.1601
limit	-11.1603
Fields	-11.1603
emoOutput	-11.1606
pygments	-11.1609
▁driver	-11.1618
Direct	-11.1621
Executor	-11.1621
zap	-11.1621
injection	-11.1622
▁turbo	-11.1624
Train	-11.1626
SqlServer	-11.1628
NL	-11.1639
PlugIn	-11.1642
lxmwb	-11.1644
Sort	-11.1646
appcompat	-11.1647
ingest	-11.165
under	-11.1651
endpoints	-11.1651
our	-11.1653
ass	-11.166
ow	-11.1665
clients	-11.1671
dash	-11.1676
drive	-11.1679
61.	-11.1682
iml	-11.1682
mask	-11.1682
cuda	-11.1691
abs	-11.1694
"	-11.1696
maker	-11.1697
▁q	-11.1699
Proto	-11.17
Visual	-11.1702
solaris	-11.1708
dv	-11.1709
jax	-11.1713
preferences	-11.1718
hook	-11.1722
Room	-11.1723
pin	-11.1723
analyzer	-11.1724
Red	-11.1726
PowerPoint	-11.1727
Linq	-11.1727
006	-11.173
mpi	-11.173
eg	-11.1733
communication	-11.1743
004.	-11.1748
tz	-11.1748
▁G	-11.1749
▁pages	-11.175
Inspector	-11.175
Connector	-11.1753
gb	-11.1759
eve	-11.1763
656	-11.1768
beam	-11.1771
Cordova	-11.1772
Ma	-11.1774
short	-11.1774
jetbrains	-11.1785
kaldi	-11.1785
▁resource	-11.1787
minify	-11.1789
Realm	-11.1793
PF	-11.1794
Play	-11.1796
FI	-11.1798
apt	-11.1801
pri	-11.1803
666	-11.1807
phases	-11.181
CD	-11.1811
igdc	-11.1813
Attributes	-11.1817
PlayerFramework	-11.1824
Checker	-11.1827
faq	-11.1828
pocketmine	-11.1832
Suite	-11.1833
anymatch	-11.1834
phpt	-11.1836
macros	-11.1838
Servlet	-11.1844
-0.9.7.4/	-11.1844
asciidoc	-11.1847
Plus	-11.1848
aspx	-11.1849
styleguide	-11.1849
combine	-11.1852
gemoc	-11.1857
machinery	-11.1857
interpreter	-11.1858
DAO	-11.1858
-2.6	-11.1858
67.	-11.1859
torMain	-11.1864
maxmin	-11.1869
echo	-11.1869
lilv	-11.1869
Observable	-11.188
permissions	-11.1881
Port	-11.1882
hot	-11.189
tester	-11.1891
Entities	-11.1892
kanji	-11.1892
Packet	-11.1896
anchor	-11.1897
MD	-11.1898
gae	-11.1902
AG	-11.1903
Completion	-11.1904
pianWarsCampaign	-11.1904
bleve	-11.1905
arx	-11.1909
pen	-11.1911
conv	-11.1913
pxa	-11.1915
AT	-11.1917
saml	-11.1918
phpspec	-11.1918
bor	-11.1921
16-	-11.1927
devel	-11.193
FS	-11.1931
ran	-11.1932
ji	-11.1935
vault	-11.194
Ticket	-11.194
idle	-11.1941
Guzzle	-11.1952
ysto	-11.1953
xfs	-11.1956
MainActivity	-11.1957
enable	-11.1961
ball	-11.1964
Constructor	-11.1965
77.	-11.1969
▁slide	-11.1971
▁Windows	-11.1975
imports	-11.1975
syscall	-11.198
wt	-11.1981
ks	-11.1985
Di	-11.1988
disable	-11.1992
▁"	-11.1995
speed	-11.2001
Live	-11.2005
printer	-11.2005
paste	-11.2006
WebContent	-11.2009
bytecode	-11.201
Pi	-11.2013
-04-	-11.2014
Transformer	-11.2019
systems	-11.202
keywords	-11.2022
Shell	-11.2024
Syntax	-11.2024
Mag	-11.2024
loose	-11.2024
bits	-11.2028
planet	-11.2031
mbeddr	-11.2036
:	-11.2037
TestProjects	-11.2038
filesystem	-11.204
asr	-11.2048
8192	-11.2048
living	-11.2049
104	-11.2051
▁template	-11.2056
flink	-11.2058
protected	-11.2058
banner	-11.2063
mil	-11.2064
spdy	-11.2068
eng	-11.2077
actionpack	-11.2079
coll	-11.2085
scx	-11.2088
ler	-11.2094
▁Dokumentation	-11.2097
microsoft	-11.2098
procedure	-11.2099
charts	-11.2103
abi	-11.2107
▁files	-11.2107
Summary	-11.2109
sabre	-11.211
May	-11.2112
ResultsExplorer	-11.2122
CE	-11.2125
005.	-11.213
inference	-11.2134
▁jspm	-11.2135
▁extended	-11.2144
leaflet	-11.2146
sym	-11.2152
700	-11.2156
unique	-11.2159
94.	-11.2165
adm	-11.2171
TR	-11.2172
69.	-11.2172
roll	-11.2174
96.	-11.2179
isa	-11.2182
Scope	-11.2183
youbot	-11.2183
/77/77	-11.2184
JavaScript	-11.2185
cssstyle	-11.2185
alf	-11.2194
LiveBroadcast	-11.2195
63.	-11.2199
optimizer	-11.2199
-0.3	-11.2201
AppIcon	-11.2206
iq	-11.2208
0000	-11.2213
vision	-11.222
apex	-11.222
mess	-11.2229
metal	-11.2229
neutral	-11.2232
Legacy	-11.2232
delayed	-11.2237
RB	-11.2245
hxx	-11.2245
keras	-11.2246
frag	-11.2265
65.	-11.2267
devtools	-11.2269
sketch	-11.2269
WinJS	-11.2271
lit	-11.2277
▁extra	-11.228
jkiss	-11.2282
smoke	-11.2282
Workflow	-11.2282
▁of	-11.2285
Drivers	-11.2287
smarty	-11.2288
76.	-11.2293
Airplanes	-11.2294
finite	-11.2294
market	-11.2305
rich	-11.2306
information	-11.2306
/62/62	-11.2307
infrastructure	-11.2308
recess	-11.2308
/10/10	-11.231
vers	-11.2311
credentials	-11.2319
xxx	-11.2321
listing	-11.2322
▁utils	-11.233
infiniband	-11.2331
talents	-11.2332
Share	-11.2343
Spirv	-11.2344
decompress	-11.2344
Binding	-11.2346
73.	-11.2355
wesnoth	-11.2356
chip	-11.2359
your	-11.2361
coding	-11.2362
subprojects	-11.2362
OTL	-11.2369
Collections	-11.237
aucho	-11.237
para	-11.238
mate	-11.238
exynos	-11.2381
AndroidManifest	-11.2382
/2.2.0-	-11.2382
/2.1.1/	-11.2382
contract	-11.2383
Normal	-11.2383
rust	-11.2391
xi	-11.2393
dbeaver	-11.2394
/107/107	-11.2394
XX	-11.2394
pet	-11.2395
VE	-11.2401
▁integration	-11.2402
▁u	-11.2403
spin	-11.2404
Convert	-11.2406
90.	-11.2408
cgi	-11.241
Backup	-11.2412
ins	-11.2414
RecyclerView	-11.2419
netflix	-11.2419
lucene	-11.2419
prometheus	-11.2419
mpdf	-11.2425
54.	-11.2431
Registration	-11.2432
Compilers	-11.2432
Write	-11.2433
wb	-11.2433
firmware	-11.2433
▁typo	-11.2433
gonum	-11.2441
Infrastructure	-11.2444
inp	-11.2445
pod	-11.2448
Archive	-11.2448
sysext	-11.2449
SOP	-11.2455
tre	-11.2457
rack	-11.2458
MIT	-11.2462
nfs	-11.2462
nand	-11.2466
MO	-11.2468
Newtonsoft	-11.2469
journal	-11.2469
JSQMessages	-11.247
smtp	-11.2473
motion	-11.2478
▁locales	-11.2478
combos	-11.2482
eeglab	-11.2482
NO	-11.2484
▁Dy	-11.2492
▁products	-11.2494
inventory	-11.2495
autoload	-11.2497
extended	-11.2506
encodings	-11.2507
accessibility	-11.2508
/82/82	-11.2508
surface	-11.251
take	-11.2514
guard	-11.2518
Scale	-11.2522
DependencyInject	-11.2523
sourcemaps	-11.2526
Man	-11.2526
CR	-11.2531
Shadow	-11.2533
Per	-11.2539
▁setup	-11.2539
paths	-11.2539
dhcp	-11.2546
Push	-11.2546
reactcss	-11.2548
▁Contrib	-11.2551
Transfer	-11.2557
Xaml	-11.2558
52.	-11.2558
/67/67	-11.256
warning	-11.2561
Tri	-11.2563
hdfs	-11.2573
hp	-11.258
Keys	-11.258
REST	-11.2582
loadbalancer	-11.2585
eth	-11.2585
attachment	-11.2593
ev	-11.2594
▁O	-11.2594
Ski	-11.2595
taxonomy	-11.2597
sn	-11.2601
mag	-11.2603
tracking	-11.2604
mixin	-11.2606
ACS	-11.2607
Tor	-11.261
-12-	-11.2611
postgresql	-11.2613
-1.2.	-11.262
cmp	-11.2621
study	-11.2623
Transition	-11.2623
omega	-11.2623
Ext	-11.2625
Trait	-11.2628
▁security	-11.2628
recipe	-11.263
none	-11.2634
Diagnostics	-11.2634
kra	-11.2637
webp	-11.2638
TH	-11.264
azu	-11.2642
Th	-11.2647
▁upload	-11.2658
pick	-11.266
▁eclipse	-11.2666
▁package	-11.2668
ClientExample	-11.2675
CoreBundle	-11.2677
CDV	-11.268
▁ics	-11.2683
Phone	-11.2685
98.	-11.2688
Names	-11.2689
Phase	-11.2689
builders	-11.2692
Analyzer	-11.2695
iCheck	-11.2698
706	-11.2699
AppBundle	-11.27
71.	-11.2708
Execution	-11.2713
7/23.0.1/	-11.2713
ExceptionTest	-11.2714
ey	-11.2716
formula	-11.2716
Exp	-11.2717
tlog	-11.2717
0001	-11.2719
documentor	-11.2727
activities	-11.2727
107	-11.273
Declaration	-11.2739
Sop	-11.2743
▁robo	-11.2744
ultimate	-11.2752
hoek	-11.2752
Pa	-11.2752
▁Demo	-11.2756
bee	-11.2757
interaction	-11.2759
immediate	-11.2765
lnc	-11.2773
shortcodes	-11.2773
▁otl	-11.2776
Sign	-11.2778
acquia	-11.2778
starter	-11.278
gd	-11.2782
sink	-11.2784
Reg	-11.279
Diff	-11.2791
_1.3.0/	-11.2791
mods	-11.2792
▁service	-11.2793
ControllerTest	-11.2801
VS	-11.2803
tb	-11.2809
spot	-11.281
▁npc	-11.2812
ftp	-11.2814
jetty	-11.2817
/94/94	-11.2818
2008	-11.2818
topic	-11.282
iterable	-11.2823
ous	-11.2824
imul	-11.2826
dungeon	-11.283
▁FILM	-11.283
srv	-11.2831
egg	-11.2831
Widgets	-11.2838
selected	-11.284
Art	-11.2841
1.1.	-11.2843
pinkie	-11.2844
Send	-11.2847
▁PlayFab	-11.2847
Float	-11.2852
instrument	-11.2855
FEATURE	-11.2856
Markdown	-11.2857
baseline	-11.2857
Lazy	-11.2859
multiparty	-11.286
AM	-11.2861
lc	-11.2862
ell	-11.2864
llvm	-11.2864
@3	-11.2868
percona	-11.2869
mangos	-11.287
mit	-11.2875
Particle	-11.2881
sessions	-11.2883
timeout	-11.2883
student	-11.2887
HelperFunctions	-11.2887
iio	-11.2889
tapestry	-11.2889
Fit	-11.2889
4_0_0	-11.2892
Rss	-11.2892
Fast	-11.2897
Comp	-11.2899
makefile	-11.29
Mi	-11.2906
ymca	-11.2909
minecraft	-11.2909
86_64/	-11.2909
blank	-11.291
ignite	-11.2911
proposals	-11.2921
▁openquake	-11.2922
nuspec	-11.2929
ROOT	-11.2935
jre	-11.2938
mmc	-11.2946
▁Doc	-11.2946
ianWarsCampaign	-11.2949
▁nemo	-11.2949
▁cmake	-11.295
autocomplete	-11.295
828	-11.2951
HW	-11.2951
inf	-11.2951
vvv	-11.2951
hard	-11.2952
duplex	-11.2958
ringin	-11.2958
hyper	-11.296
Avilox	-11.2962
pagination	-11.2962
tough	-11.2962
tzinfo	-11.2965
Scroll	-11.2966
2.0.	-11.2968
ole	-11.297
An	-11.2975
aturePack	-11.2975
linalg	-11.2976
Review	-11.2976
NetAdmin	-11.2982
argument	-11.2982
Day	-11.2983
eap	-11.2985
pose	-11.2988
IC	-11.2994
CF	-11.2995
OWC	-11.2998
gold	-11.3
mux	-11.3006
Dom	-11.3008
Down	-11.3009
snapshot	-11.3009
chapter	-11.301
jit	-11.3018
lex	-11.3028
stripe	-11.3029
evol	-11.3033
datastructures	-11.3037
pull	-11.3038
invoke	-11.3041
chardet	-11.3042
Complex	-11.3042
130_	-11.3045
Ì	-11.3056
▁Game	-11.3058
82.	-11.3059
upnp	-11.3064
nova	-11.3065
»	-11.3069
life	-11.3069
adminhtml	-11.3071
mixed	-11.3072
Cat	-11.3077
screenshots	-11.3078
getter	-11.3078
hacks	-11.3078
Course	-11.3082
Í	-11.3082
mount	-11.3083
Inter	-11.3083
Fire	-11.3083
clockwork	-11.3084
720	-11.3092
factories	-11.3096
Bit	-11.3097
84.	-11.3103
qi	-11.3107
kafka	-11.3109
trusty	-11.3111
partner	-11.3122
scanner	-11.3123
wind	-11.3126
dx	-11.3133
Sheet	-11.3135
/2018-	-11.3136
symbols	-11.3137
66.	-11.314
bang	-11.314
faker	-11.3141
ships	-11.3143
▁cells	-11.315
68.	-11.3157
vp	-11.3163
nls	-11.3163
Limit	-11.3164
plans	-11.3167
▁tapestry	-11.317
libmesh	-11.3173
-1-	-11.3173
Setting	-11.3184
010	-11.3187
quad	-11.3187
sxwt	-11.3191
AB	-11.3192
RU	-11.3192
High	-11.3194
Safe	-11.3196
tegra	-11.3196
brcm	-11.3197
▁local	-11.3197
▁stock	-11.3202
mfd	-11.3203
blame	-11.3204
Advanced	-11.3204
/2.0.0/	-11.3205
Ju	-11.3205
realm	-11.3209
2006	-11.3214
checker	-11.3216
pkcs	-11.3216
Curve	-11.3219
Idle	-11.322
134	-11.322
expressions	-11.3222
Ti	-11.3224
navbar	-11.3224
encrypt	-11.3229
Small	-11.3232
IM	-11.3233
Mem	-11.3238
orange	-11.324
eidentifier	-11.3242
Min	-11.3247
tizh	-11.325
Cart	-11.325
Mini	-11.3253
126	-11.3255
unzip	-11.3256
xsl	-11.3257
matcher	-11.3257
condition	-11.3258
Air	-11.3258
wicket	-11.3259
creation	-11.3259
/64/64	-11.3259
/66/66	-11.3259
gate	-11.3265
++	-11.3267
Tables	-11.3283
/60/60	-11.329
xla	-11.3292
try	-11.3298
Namespace	-11.3299
assessment	-11.33
Records	-11.3302
prevent	-11.3303
Logo	-11.3303
_92/	-11.3304
Structure	-11.3305
screens	-11.3306
War	-11.3308
ore	-11.3312
toggle	-11.3313
tcpdf	-11.3317
Nav	-11.3321
bak	-11.3324
ical	-11.3325
jpt	-11.3327
ped	-11.3327
xmlrpc	-11.3332
fec	-11.3337
angularjs	-11.334
kan	-11.335
agg	-11.3351
Timer	-11.3351
many	-11.3355
/5.22.0/	-11.3355
selectors	-11.3358
Bus	-11.3363
bool	-11.3369
swf	-11.3372
180	-11.3375
386/	-11.3375
externals	-11.3377
nss	-11.3377
Subscription	-11.3377
gn	-11.3377
aw	-11.3379
Signature	-11.3383
▁osu	-11.3386
datasets	-11.3387
▁imports	-11.3391
sal	-11.3394
which	-11.3397
hand	-11.3397
PM	-11.3398
plane	-11.3398
Wiki	-11.3406
extlibs	-11.3407
uid	-11.3408
metamodel	-11.3409
MM	-11.3421
97.	-11.3422
Wizard	-11.3424
-05-	-11.3438
avt	-11.3438
GlobalProcessing	-11.3439
inject	-11.3439
webgl	-11.3443
SU	-11.3446
Fixture	-11.3448
Trigger	-11.3452
87.	-11.3453
CG	-11.3454
First	-11.3461
405	-11.3461
MC	-11.3464
setting	-11.3464
ron	-11.3465
reminder	-11.3466
jenkins	-11.3466
MANIFEST	-11.3466
▁FLIMfit	-11.3466
PlayFabSDK	-11.3468
bp	-11.3468
▁Service	-11.347
meter	-11.3473
Serial	-11.3474
ftl	-11.3475
basics	-11.3477
monk	-11.3478
MediaWords	-11.3481
sup	-11.3481
vespa	-11.3481
reporting	-11.3482
encoded	-11.3485
completion	-11.349
tim	-11.349
SC	-11.3491
Reports	-11.3499
Clients	-11.3499
scalable	-11.3499
-09-	-11.3501
)	-11.3505
dlg	-11.3507
tax	-11.3507
Habitat	-11.3508
cov	-11.3509
inv	-11.3518
emitter	-11.352
PerDiem	-11.3522
activemq	-11.3523
contrail	-11.3523
Bo	-11.3523
chromeos	-11.3538
uz	-11.3538
gradient	-11.3544
lip	-11.3546
ob	-11.3548
cycle	-11.3548
Methods	-11.355
marker	-11.355
welcome	-11.3551
door	-11.3557
▁kubernetes	-11.3563
xxxhdpi	-11.3563
owl	-11.3564
Virtual	-11.3565
Inventory	-11.3565
Dark	-11.3565
secret	-11.3565
landob	-11.3565
mocks	-11.3565
arrays	-11.3566
inputs	-11.3566
Question	-11.3567
pal	-11.3567
lot	-11.3567
2378	-11.3569
IL	-11.3572
/8.4.0/	-11.3579
Online	-11.3579
tails	-11.3579
antlr	-11.3581
▁repository	-11.3582
wf	-11.3582
dic	-11.3582
skip	-11.3587
eslintrc	-11.3588
works	-11.3593
▁hr	-11.3593
indices	-11.3593
LMGPUImage	-11.3593
spinner	-11.3593
frontends	-11.3596
storm	-11.3596
labels	-11.3597
915	-11.36
Cells	-11.3601
Free	-11.3605
bra	-11.3608
buster	-11.3609
ov	-11.361
gene	-11.3611
iZ	-11.3611
-10-	-11.3618
eye	-11.3619
Board	-11.3621
books	-11.3624
/80/80	-11.3624
excel	-11.3624
integrate	-11.3626
Ba	-11.3628
rsa	-11.3629
fck	-11.3629
union	-11.363
openbios	-11.3637
56.	-11.3639
Bootstrap	-11.3647
HDRP	-11.3649
81.	-11.365
/96/96	-11.365
sock	-11.3651
AspNetCore	-11.3652
Forum	-11.3652
lexer	-11.3653
xcconfig	-11.3653
800	-11.3653
junit	-11.3657
sage	-11.3657
visualization	-11.3661
cxxtest	-11.3663
Decorator	-11.3665
Ops	-11.3665
wd	-11.3665
Mask	-11.367
Init	-11.3674
aggregator	-11.3678
__39__	-11.3678
grey	-11.3679
bitcoin	-11.3679
/89/89	-11.3679
modalVersion	-11.3679
ans	-11.3679
Keyboard	-11.3679
online	-11.3686
otf	-11.3692
authorization	-11.3693
blackberry	-11.3693
390	-11.3693
autopsy	-11.3693
Rendering	-11.3694
Deep	-11.3694
tour	-11.3696
mainwindow	-11.37
▁My	-11.3702
Star	-11.3702
coder	-11.3703
Frontend	-11.3709
mean	-11.3718
Char	-11.3721
nacelle	-11.3721
delivery	-11.3721
Dropbox	-11.3722
Observer	-11.3725
duplexer	-11.3726
mls	-11.3729
Robot	-11.3731
arr	-11.3732
88.	-11.3733
elm	-11.3734
cipher	-11.3735
RTS	-11.374
Composer	-11.3741
analyses	-11.3742
TP	-11.3742
Behavior	-11.375
rating	-11.375
setuptools	-11.3753
Tester	-11.3757
Surface	-11.3764
acs	-11.3775
Providers	-11.3776
nightly	-11.378
-06-	-11.3781
marked	-11.3788
cent	-11.3792
Neig	-11.3794
injected	-11.3797
aarch	-11.3805
mps	-11.3805
wo	-11.3806
tuple	-11.3809
▁Test	-11.3809
checkout	-11.3809
mob	-11.3819
2019	-11.3821
Solver	-11.3821
flot	-11.3822
pair	-11.3824
Counter	-11.3826
Broad	-11.3827
met	-11.3827
▁0.17/	-11.3828
Stub	-11.3829
BA	-11.3836
throttle	-11.3836
there	-11.3837
Pe	-11.384
▁nova	-11.3841
AppDelegate	-11.3843
ami	-11.3843
how	-11.3844
spatial	-11.3845
Translation	-11.3848
this	-11.3858
006.	-11.3859
should	-11.3864
Hierarchy	-11.3866
Toolbar	-11.3868
-1.0.	-11.3869
ejb	-11.387
ready	-11.3875
-1.7.0/	-11.3877
firefox	-11.3878
▁PixelDungeon	-11.388
Constraints	-11.3885
_0_	-11.389
Touch	-11.3895
additional	-11.3896
sTest	-11.3899
050	-11.3903
points	-11.3903
kube	-11.3906
infinispan	-11.3909
Issue	-11.3909
wsn	-11.391
nf	-11.391
ITER	-11.391
89.	-11.3911
ware	-11.3912
ert	-11.3913
Schedule	-11.3914
95.	-11.3916
cda	-11.392
well	-11.3923
samsung	-11.3924
datacatalog	-11.3924
nxhtml	-11.393
kb	-11.393
3.2/	-11.3931
kn	-11.3933
ever	-11.3935
Insert	-11.3937
Last	-11.3951
sml	-11.3952
compartment	-11.3953
year	-11.3954
Fill	-11.3956
mv	-11.3957
▁os	-11.3961
dg	-11.3962
MX	-11.3964
drag	-11.3968
proyecto	-11.3968
Wallet	-11.3968
MA	-11.397
sched	-11.397
wikimedia	-11.3978
datatypes	-11.3978
License	-11.3983
enc	-11.3983
subsystem	-11.3983
psi	-11.3993
wck	-11.3993
standalone	-11.3997
Overlay	-11.3997
simpletest	-11.3998
connectivity	-11.3998
74.	-11.4001
hbase	-11.4002
xerces	-11.4005
orbit	-11.4008
pn	-11.401
TS	-11.401
dto	-11.4011
sail	-11.4011
Other	-11.4015
ative	-11.4018
frequency	-11.4027
ina	-11.4029
extjs	-11.4029
Preview	-11.4036
stamp	-11.4037
Super	-11.404
thrift	-11.4042
VisualBasic	-11.4043
kind	-11.4043
ano	-11.4043
Values	-11.4048
SceneBuilderKit	-11.4056
setter	-11.4061
Managed	-11.4061
cliui	-11.4062
deb	-11.4068
Converters	-11.4071
tomcat	-11.4071
oss	-11.4075
PlatinumTT	-11.4086
precision	-11.4086
jemalloc	-11.4086
storyboard	-11.4088
▁my	-11.4092
ally	-11.4098
gml	-11.4101
Patch	-11.4101
ors	-11.4104
83.	-11.4107
99.	-11.4107
Rock	-11.4108
era	-11.4108
GR	-11.4108
144	-11.4109
bitbucket	-11.4116
ank	-11.4118
LT	-11.4118
91.	-11.4122
callback	-11.4123
PNG	-11.4125
jaxp	-11.4126
Cookie	-11.4126
124	-11.4128
membership	-11.413
davinci	-11.4131
-1.6.0	-11.4131
ute	-11.4132
opengl	-11.4136
▁compiler	-11.4137
WPF	-11.4138
cz	-11.4138
nci	-11.4138
PP	-11.4144
nouveau	-11.4146
Rendu	-11.4146
ables	-11.4146
und	-11.4148
vala	-11.4148
▁System	-11.4157
experiment	-11.4158
/4.02.0/	-11.4161
/105/105	-11.4161
127	-11.4162
▁qt	-11.4164
Photo	-11.4166
▁automatic	-11.4175
CLI	-11.4188
pause	-11.4189
Docs	-11.419
adjoint	-11.4191
PC	-11.4193
phase	-11.4205
cash	-11.4206
cloudbrain	-11.4206
provisioning	-11.4208
bib	-11.4209
79.	-11.421
concurrent	-11.4212
116	-11.4216
Algorithms	-11.4217
engines	-11.4219
traffic	-11.4221
baasbox	-11.4221
xlsx	-11.4227
0.0.	-11.4232
EX	-11.4233
unescape	-11.4233
ED	-11.4234
spawn	-11.4238
tzdata	-11.4241
jest	-11.4243
Wd	-11.4248
▁RTS	-11.4248
papyrus	-11.4251
Expr	-11.4253
ends	-11.4254
▁cagrid	-11.4256
85.	-11.4256
heroes	-11.426
words	-11.426
contactsmodel	-11.4262
Machine	-11.4264
undo	-11.4265
Dictionary	-11.4266
regs	-11.427
hero	-11.4276
ities	-11.4276
science	-11.4278
LS	-11.4283
timers	-11.4287
texts	-11.4291
cmf	-11.4296
balanced	-11.4296
Cursor	-11.4296
-1.1.3-	-11.4297
tan	-11.4302
-190	-11.4306
122	-11.4307
ud	-11.4311
-1.4.0.2/	-11.4312
Refresh	-11.4312
vanilla	-11.4312
ted	-11.4313
It	-11.4315
codes	-11.4321
dotnet	-11.4323
maintenance	-11.4327
ET	-11.4334
Processing	-11.4335
dLibraries	-11.4336
inherit	-11.4342
bsp	-11.4343
vmkernel	-11.4344
race	-11.4352
ood	-11.4359
aop	-11.4363
WebApi	-11.4365
als	-11.4365
SL	-11.4366
EE	-11.4369
frames	-11.4371
Beauty	-11.4373
hotel	-11.4375
elev	-11.4377
put	-11.4378
appengine	-11.4378
Two	-11.4379
Inline	-11.4379
dog	-11.4387
Statistics	-11.4387
Quiz	-11.439
animate	-11.4396
RenderSystem	-11.4397
oa	-11.4402
Compare	-11.4404
flatten	-11.4404
elastic	-11.4404
spdx	-11.4404
stra	-11.4408
ingTools	-11.4409
solver	-11.4412
▁flot	-11.4415
sdl	-11.4416
nodeunit	-11.4417
polygon	-11.4419
tiffany	-11.4419
anri	-11.4421
hack	-11.4422
ln	-11.4422
Param	-11.4424
▁ros	-11.4429
Byte	-11.4429
Chapter	-11.4434
▁grails	-11.4435
autoconfigure	-11.4437
author	-11.4437
Localizable	-11.445
farm	-11.4453
Multiple	-11.4459
IntegrationTest	-11.4459
tn	-11.446
/1.7.0-	-11.4461
AC	-11.4462
jcr	-11.4462
pk	-11.4464
mine	-11.4465
length	-11.4465
broadway	-11.4466
wegas	-11.4466
domains	-11.4468
distributed	-11.447
Fran	-11.4477
risk	-11.4479
StagingArea	-11.448
datetime	-11.4488
Can	-11.4488
▁lisp	-11.449
Scan	-11.4491
lines	-11.4494
SN	-11.4496
marshal	-11.4497
interop	-11.4499
007.	-11.45
asp	-11.45
efl	-11.4504
UserBundle	-11.4505
rank	-11.4505
Preferences	-11.4506
/104/104	-11.4511
DA	-11.4514
ammap	-11.4515
WebSocket	-11.4516
008	-11.452
Fabric	-11.4527
Kiwi	-11.4527
jackson	-11.4527
About	-11.4527
chrono	-11.4531
gss	-11.4534
Zip	-11.4536
CO	-11.4536
datastore	-11.454
Calculator	-11.4542
Injection	-11.4543
ew	-11.4546
genmod	-11.4548
insecure	-11.455
aggregate	-11.455
015.	-11.4553
mgr	-11.4554
atos	-11.4556
automation	-11.4558
physics	-11.4558
computer	-11.456
ward	-11.4566
otto	-11.4572
dataaccess	-11.4573
Attachment	-11.4574
Gateway	-11.4574
Blend	-11.4574
uploader	-11.4576
gal	-11.4581
▁pics	-11.4581
Break	-11.4589
memoize	-11.4591
submit	-11.4591
RS	-11.4592
ther	-11.4599
aria	-11.4603
009	-11.4604
construct	-11.4604
Signal	-11.4606
detection	-11.4608
accepts	-11.4612
Mono	-11.4614
refract	-11.4618
Mon	-11.4619
updraftplus	-11.4621
cattle	-11.4621
/95/95	-11.4621
rand	-11.4625
▁Data	-11.4628
crt	-11.4635
iot	-11.4635
Visualizer	-11.4636
acion	-11.464
infra	-11.4644
ara	-11.4644
detector	-11.4649
ile	-11.465
▁N	-11.4651
privacy	-11.4652
tribes	-11.4652
ogg	-11.4653
human	-11.466
Front	-11.4665
times	-11.4666
ou	-11.4667
Problem	-11.4668
Cmdlet	-11.4669
80211/	-11.4669
/2011_	-11.467
han	-11.467
Integer	-11.4674
117	-11.4677
▁Godeps	-11.4681
LocalService	-11.4683
insights	-11.4687
Formatting	-11.4687
credit	-11.469
mq	-11.4692
dss	-11.4693
yet	-11.4694
▁patternlab	-11.4699
angle	-11.4709
paas	-11.4713
▁Surg	-11.4715
100/100	-11.4717
scheme	-11.4718
focused	-11.4721
ture	-11.4723
emacs	-11.4724
Holder	-11.473
citrus	-11.4731
SDWebImage	-11.4731
turn	-11.4732
Receiver	-11.4741
osm	-11.4741
midi	-11.4744
countries	-11.4747
pins	-11.4749
lar	-11.4751
reducers	-11.4753
stan	-11.4754
Ac	-11.4755
care	-11.4758
getid	-11.4759
agents	-11.4759
velocity	-11.4763
WS	-11.4766
310	-11.4773
grammar	-11.4776
boy	-11.4777
pvr	-11.4784
JP	-11.4784
Center	-11.4786
Cl	-11.4786
xl	-11.4788
Trampoline	-11.4795
CPLEX	-11.4795
MOSEK	-11.4795
passport	-11.4796
moono	-11.4798
▁bundles	-11.4803
Certificate	-11.481
069	-11.4811
DI	-11.4813
Dx	-11.4816
Tra	-11.4819
boom	-11.4824
sbt	-11.4824
ifi	-11.4825
Over	-11.4826
dsp	-11.4828
bcc	-11.4829
Arrow	-11.4829
leveldb	-11.4832
820	-11.4834
unsafe	-11.4835
Close	-11.4836
rot	-11.484
ade	-11.4843
building	-11.4843
449	-11.4843
Sprite	-11.4844
Mining	-11.4849
cegui	-11.4857
wan	-11.4858
008.	-11.486
dyn	-11.4866
contracts	-11.487
drafts	-11.4871
Drop	-11.4874
Sweet	-11.4875
leap	-11.4877
flux	-11.4877
FW	-11.4889
-2.3.15/	-11.489
interval	-11.4891
/84/84	-11.4892
pas	-11.4895
Ip	-11.4896
WTF	-11.4896
alarm	-11.4902
Bug	-11.4903
WebProcess	-11.4905
Return	-11.4908
▁F	-11.491
Grpc	-11.4915
Join	-11.4918
Peer	-11.4918
'	-11.4924
Interceptor	-11.4924
kernels	-11.4924
npmconf	-11.4932
FX	-11.4933
confirm	-11.4939
BGHUDAppKit	-11.4939
MultLangWeb	-11.4939
cardinal	-11.4939
-4.0.0/	-11.4939
WebView	-11.4943
103	-11.495
Argument	-11.4955
Regression	-11.4956
elephas	-11.4956
ora	-11.4957
011.	-11.4961
PE	-11.4961
MI	-11.4967
mui	-11.4967
Segment	-11.4971
ethereum	-11.4972
OpenSans	-11.4972
▁gnulib	-11.4973
lec	-11.4974
fer	-11.4975
lay	-11.498
ral	-11.4983
makefiles	-11.4983
Composite	-11.4988
Spreadsheet	-11.4988
moltemplate	-11.4993
93.	-11.5
van	-11.5004
week	-11.5007
Ajax	-11.5012
floor	-11.5021
ear	-11.5021
jbilling	-11.5025
Raw	-11.5025
qm	-11.5026
prototxt	-11.5027
Volume	-11.5027
assembly	-11.5028
-2016-	-11.5029
shapes	-11.5035
LL	-11.5037
planning	-11.5038
constraint	-11.5039
adminlte	-11.504
Params	-11.5041
mediastream	-11.5041
Dataset	-11.5041
emium	-11.5041
Dot	-11.5046
wh	-11.5047
ieee	-11.5053
Europe	-11.5053
boringssl	-11.5053
glitch	-11.5054
Launcher	-11.5055
unittests	-11.5056
streaming	-11.5056
Perf	-11.506
nvd	-11.5064
slave	-11.5071
ror	-11.5075
deprecate	-11.5079
kvm	-11.5079
009.	-11.5081
cancel	-11.5085
▁GPIO	-11.5086
-0.2	-11.5091
tg	-11.5093
Func	-11.5094
Prototype	-11.5095
_02.	-11.5098
Pair	-11.5101
follow	-11.5101
facade	-11.5103
000000	-11.5104
fin	-11.5106
EventListener	-11.511
-08-	-11.5115
sion	-11.5119
Subject	-11.5119
webserver	-11.5123
portlet	-11.5124
BB	-11.5131
020	-11.5137
apm	-11.5139
mrp	-11.5144
Canvas	-11.5152
feedback	-11.5155
ful	-11.5156
correct	-11.5161
ScenarioTest	-11.5161
nr	-11.5162
Assignment	-11.5169
112	-11.5172
depth	-11.5172
latin	-11.5174
802	-11.5182
DesignTime	-11.5186
So	-11.5187
opts	-11.519
Edge	-11.519
commander	-11.5191
dispatcher	-11.5191
cur	-11.5191
dimens	-11.5201
Sensor	-11.5202
We	-11.5204
▁meta	-11.5207
logical	-11.5209
32/3	-11.521
lim	-11.5212
eco	-11.5212
managed	-11.5217
sapient	-11.5218
medium	-11.5219
Active	-11.522
orn	-11.522
inopl	-11.5225
west	-11.5227
Filters	-11.5229
sem	-11.5231
jsdoc	-11.5231
uirouter	-11.5232
alarms	-11.5234
morph	-11.5235
▁OurArt	-11.5235
stockexchange	-11.5235
Footer	-11.5236
PR	-11.5238
cyber	-11.5241
▁front	-11.5241
Rev	-11.5241
aries	-11.5244
GLSL	-11.5245
ible	-11.5246
voice	-11.5248
lcov	-11.5248
clip	-11.5249
NG	-11.5255
Bu	-11.5257
lus	-11.526
oil	-11.526
pma	-11.5261
Cpp	-11.5265
010.	-11.5267
Alpha	-11.5269
normalization	-11.5269
synth	-11.5276
Clone	-11.5284
WebInspectorUI	-11.5285
▁indra	-11.5285
decimal	-11.5285
▁H	-11.5286
fragments	-11.5287
dbus	-11.529
decode	-11.5293
Tabs	-11.5295
dan	-11.5303
seri	-11.5307
bird	-11.531
rice	-11.531
FF	-11.531
Pipe	-11.5312
Conversion	-11.5316
Clear	-11.5318
Extra	-11.5328
csi	-11.5329
prog	-11.533
dw	-11.5334
Bound	-11.5336
/112/112	-11.5336
braces	-11.5344
Mixin	-11.5347
rds	-11.535
offset	-11.5352
krita	-11.5353
▁languages	-11.5353
podspec	-11.5358
4.0.	-11.5361
SK	-11.5361
stacked	-11.5362
▁B	-11.5363
ken	-11.5365
WebService	-11.5369
kis	-11.5371
Ka	-11.5371
BD	-11.5371
DX	-11.5372
eer	-11.5375
▁flow	-11.5376
Roboto	-11.5378
ology	-11.5385
ting	-11.5386
ita	-11.5386
undertow	-11.5386
Deployment	-11.5387
award	-11.5387
AF	-11.5395
ii	-11.5396
Cube	-11.5404
160	-11.5408
tele	-11.5415
▁protocols	-11.5416
spells	-11.542
replication	-11.5421
SSL	-11.5423
What	-11.5424
Subscriber	-11.5425
amm	-11.5428
Side	-11.5428
456	-11.5429
paint	-11.5433
jQuery	-11.5435
Symbols	-11.5435
ratio	-11.5436
datatype	-11.5436
fedorahosted	-11.5437
watchdog	-11.5438
▁ci	-11.5441
encode	-11.5443
▁database	-11.5443
_4_1	-11.5445
rename	-11.5447
alias	-11.5449
Neutral	-11.5454
Snapshot	-11.5454
clk	-11.5454
condor	-11.5455
mpc	-11.5462
▁Broad	-11.5466
▁basis	-11.5469
rolandobernal	-11.5471
Stratus	-11.5472
rython	-11.5472
MultiBit	-11.5472
tbl	-11.5474
Objective	-11.5476
-280	-11.5478
▁Mr	-11.5481
smith	-11.5483
portable	-11.5485
billing	-11.5487
OP	-11.5488
Indicator	-11.549
override	-11.5493
portaudio	-11.5494
signup	-11.5496
ServiceTest	-11.5497
cha	-11.5499
yu	-11.55
delta	-11.5502
loaders	-11.5504
USB	-11.5504
NOISE	-11.5506
FacebookSDK	-11.5506
jsprim	-11.5506
▁Act	-11.5507
tle	-11.5507
Interaction	-11.5511
probe	-11.552
PA	-11.5523
packaging	-11.5523
budget	-11.5523
markup	-11.5526
Groups	-11.5532
EN	-11.5534
▁semantic	-11.5535
ard	-11.5549
bw	-11.555
threads	-11.5555
fbx	-11.5555
pace	-11.5555
CMSIS	-11.5557
Algorithm	-11.5562
0014	-11.5562
watcher	-11.5566
retry	-11.5567
gy	-11.5572
Repositories	-11.5574
band	-11.5575
ated	-11.5575
Nu	-11.5579
fil	-11.5579
cos	-11.558
ker	-11.5581
tsv	-11.5584
ach	-11.5584
Spatial	-11.5585
coq	-11.5588
Pin	-11.5589
specific	-11.5591
Interpreter	-11.5592
strategies	-11.5592
pixmaps	-11.5593
Tags	-11.5597
haxe	-11.5604
EM	-11.5604
754	-11.5607
absolute	-11.5609
Extractor	-11.561
oop	-11.5617
natural	-11.5626
parsing	-11.5626
half	-11.5629
crud	-11.5632
cls	-11.5634
Annotations	-11.5635
SI	-11.5635
ssa	-11.564
shadows	-11.5641
▁share	-11.5641
Collision	-11.5644
HotSpot	-11.5644
pseudo	-11.5644
Lite	-11.5644
2022	-11.5646
wtf	-11.5647
iks	-11.5648
fmt	-11.5652
_001.	-11.5653
translate	-11.5656
Strings	-11.5658
ReactiveObjC	-11.566
Sharing	-11.5661
Uni	-11.5663
composite	-11.5674
heat	-11.5674
invariant	-11.5677
Wrap	-11.5678
Way	-11.5678
▁MrCMS	-11.5679
Presentation	-11.5679
druid	-11.5679
alma	-11.5681
92.	-11.5682
tec	-11.5686
unison	-11.5689
CMake	-11.569
SW	-11.5695
selftests	-11.5696
xchat	-11.5698
Based	-11.57
Requests	-11.5701
Metrics	-11.5701
ssf	-11.571
Animations	-11.5711
▁Bundle	-11.5715
xy	-11.5715
Nodes	-11.5723
cor	-11.5724
141	-11.5725
gar	-11.5729
prettify	-11.5731
youtube	-11.5731
Areas	-11.5733
ador	-11.5741
adb	-11.5748
StarterKit	-11.5749
handling	-11.5749
Big	-11.5749
Spell	-11.5751
panda	-11.5756
NT	-11.5762
starts	-11.5764
Sylius	-11.5766
fsl	-11.5767
sysfs	-11.5767
MantidQt	-11.5768
sir	-11.5769
openerp	-11.577
dox	-11.5771
Manage	-11.5772
013.	-11.5774
whitespace	-11.5774
012.	-11.5775
checkpoint	-11.5781
533	-11.5782
Rate	-11.5782
osx	-11.5782
qr	-11.5787
ating	-11.5791
Slide	-11.5791
283	-11.5793
PDF	-11.5793
Note	-11.5795
ams	-11.5799
splash	-11.5801
wg	-11.5803
Boolean	-11.5803
opsi	-11.5805
00.	-11.5811
Faker	-11.5819
Calculation	-11.5819
emc	-11.5823
899	-11.5824
bz	-11.5827
vma	-11.5832
Physics	-11.5837
nacl	-11.5847
vid	-11.5852
collector	-11.5853
Lu	-11.5853
▁Sumo	-11.5855
Mike	-11.5855
ProCenter	-11.5855
2.2.1/	-11.5856
teamwork	-11.5858
CT	-11.5859
merger	-11.5863
tier	-11.5868
predis	-11.5869
Voice	-11.5872
/98/98	-11.5873
ocaml	-11.5874
sqlalchemy	-11.5875
250	-11.5879
Indexer	-11.5881
152	-11.5882
manuals	-11.5885
062	-11.5886
men	-11.5886
AutumnJam	-11.589
cucumber	-11.589
sales	-11.5897
disp	-11.5897
pictures	-11.5898
frameworkset	-11.5899
▁matlab	-11.59
cmds	-11.5905
wrappy	-11.5909
▁engines	-11.5912
nm	-11.5912
msp	-11.5914
▁deps	-11.5914
/3.0.0/	-11.5915
WF	-11.5916
plots	-11.5924
mus	-11.5924
boxes	-11.5925
strike	-11.5926
adc	-11.5927
grant	-11.593
sans	-11.5931
/00-	-11.5933
WP	-11.5938
▁L	-11.594
company	-11.5943
Santas	-11.5943
/103/103	-11.5944
boolean	-11.5944
▁cdap	-11.5948
tie	-11.5949
Arm	-11.5949
▁image	-11.595
MainWindow	-11.5951
orders	-11.5952
▁django	-11.596
iss	-11.5961
Ctrl	-11.5962
rad	-11.5964
cdap	-11.5965
Lua	-11.5967
cut	-11.597
480	-11.5974
joint	-11.5975
cask	-11.5977
liquid	-11.5979
positive	-11.5979
▁controller	-11.5981
clustering	-11.5988
nom	-11.5988
scripting	-11.5991
exo	-11.5992
Am	-11.5995
Only	-11.5996
AN	-11.5999
lightness	-11.6
▁make	-11.6001
Mar	-11.6001
uck	-11.6002
pid	-11.6003
ending	-11.6012
hljs	-11.6016
CI	-11.6018
subscription	-11.6023
iOSClient	-11.6029
feeds	-11.6031
dal	-11.6032
Middleware	-11.6034
zanin	-11.6034
multipipe	-11.6036
zencoder	-11.6037
Soft	-11.6039
road	-11.6042
▁categories	-11.6045
TF	-11.6046
Ja	-11.6046
▁addon	-11.6051
UnityTestTools	-11.6052
Twitter	-11.6052
googleapis	-11.6056
446	-11.6057
Social	-11.6057
1.7.0_	-11.6065
xtensa	-11.607
psy	-11.607
ras	-11.6071
second	-11.6071
150.	-11.6071
MSProject	-11.6071
spreadsheet	-11.6085
Dto	-11.6088
stopwords	-11.6091
Deploy	-11.6105
Angular	-11.6106
restore	-11.6109
Watch	-11.6117
lesson	-11.6118
ake	-11.6124
ement	-11.6133
CP	-11.6136
▁thirdparty	-11.6138
naming	-11.6143
hints	-11.6149
PB	-11.6152
Cargo	-11.6153
gst	-11.6155
lectures	-11.6157
Arrays	-11.6159
battery	-11.6161
/61/61	-11.6162
Validate	-11.6163
IdentityServer	-11.6163
016.	-11.6164
Na	-11.6165
If	-11.6166
-150	-11.6169
768	-11.6173
gear	-11.6176
Producer	-11.6179
Encoding	-11.6179
ISO	-11.6181
cho	-11.6185
BS	-11.6193
Zone	-11.6204
usa	-11.6205
ground	-11.6209
▁redis	-11.6209
pager	-11.6212
550	-11.6216
-2.7.0/	-11.6216
Alias	-11.6217
TheMin	-11.6218
▁Packages	-11.6221
NLog	-11.6234
esciencecenter	-11.6234
756	-11.6237
▁API	-11.6241
bk	-11.6241
ions	-11.6242
_8_8	-11.6245
_01_4	-11.6246
processors	-11.625
hwmon	-11.6256
Length	-11.6262
▁demos	-11.6263
Bad	-11.6264
barcode	-11.6265
permission	-11.627
%	-11.627
Choice	-11.6271
azy	-11.6273
EL	-11.6275
133	-11.6275
gateways	-11.6276
Fake	-11.6278
resourcemanager	-11.6279
Migration	-11.628
MT	-11.628
cljs	-11.6281
diana	-11.6282
Profiler	-11.6288
surf	-11.629
ckpt	-11.6294
Self	-11.6294
bucket	-11.6294
geoip	-11.6295
virt	-11.6297
▁unison	-11.6297
conditions	-11.6298
columns	-11.6303
kirki	-11.6308
231	-11.6313
▁transport	-11.6315
algo	-11.6318
Seq	-11.6319
oid	-11.6321
▁view	-11.6323
cons	-11.6324
Intro	-11.6325
backbone	-11.6327
cassandra	-11.6327
repositories	-11.6327
atabou	-11.6327
▁jpa	-11.6327
ParserTest	-11.6328
dav	-11.6337
▁misc	-11.6339
tremolo	-11.6345
Authorization	-11.6346
SQLite	-11.6346
ON	-11.6352
▁apollo	-11.6352
month	-11.6356
0.1.	-11.6358
terms	-11.6358
mol	-11.6359
620	-11.6359
rdb	-11.636
137	-11.6361
pear	-11.6364
dictionary	-11.6364
supplicant	-11.6364
Promise	-11.6364
ay	-11.6366
▁Legends	-11.6383
owin	-11.6386
3.4.	-11.6388
Ne	-11.6389
Contracts	-11.6391
▁script	-11.6393
Year	-11.6399
▁archives	-11.64
Cli	-11.64
/2.0.0.0/	-11.6401
ctx	-11.6402
money	-11.6402
JSONStream	-11.6403
mutations	-11.6405
130	-11.6407
working	-11.6408
192	-11.6409
Variables	-11.6414
Monad	-11.6418
psychopy	-11.642
diag	-11.6421
ode	-11.6424
Explorer	-11.6425
laser	-11.643
▁Man	-11.6432
bre	-11.6432
QA	-11.6436
Short	-11.6441
kv	-11.6445
cudd	-11.6445
internet	-11.6448
LY	-11.645
sphere	-11.6455
Lookup	-11.6468
ula	-11.6469
Tax	-11.647
hol	-11.6471
▁crm	-11.6475
temporal	-11.6477
available	-11.6477
Glyph	-11.6477
▁Counterpicks	-11.6477
RabbitFarm	-11.6477
serialize	-11.6478
cloudguard	-11.6479
Monolog	-11.648
cabal	-11.648
Benchmark	-11.6481
funcs	-11.6481
▁Ogre	-11.6483
detects	-11.6485
areas	-11.6492
030	-11.6493
loci	-11.6494
Alamofire	-11.6494
Fix	-11.6499
rpm	-11.6499
rap	-11.65
GS	-11.6501
devise	-11.6503
freeze	-11.6504
▁proto	-11.6505
neat	-11.6506
visualize	-11.6509
oda	-11.6509
Audit	-11.651
qq	-11.651
Article	-11.6515
kunena	-11.6515
wordwrap	-11.6516
derived	-11.6517
jaxws	-11.6518
ubl	-11.6519
-2.0.	-11.6522
Mat	-11.6524
tosca	-11.6525
spf	-11.653
Cor	-11.653
AID	-11.6534
Printer	-11.6535
tron	-11.6536
cells	-11.6536
devops	-11.6536
kar	-11.6545
atl	-11.6551
Africa	-11.6553
▁LGPL	-11.6553
smile	-11.6553
passthrough	-11.6554
workshop	-11.6555
openy	-11.6556
tokenizer	-11.6561
oldVersion	-11.6561
Flat	-11.6562
191	-11.6562
editing	-11.657
bubble	-11.657
Comparator	-11.6572
Scanner	-11.6572
Vertex	-11.6572
bread	-11.6573
Publish	-11.6585
Final	-11.6587
texture	-11.6587
Contract	-11.6589
cypher	-11.6591
Merchello	-11.6591
AUTHORS	-11.6591
Numeric	-11.6591
homme	-11.6591
ports	-11.6593
ified	-11.6596
qua	-11.6597
Next	-11.6598
HandlerTest	-11.66
He	-11.6605
vel	-11.6607
Circle	-11.6607
pac	-11.6608
monocle	-11.661
subject	-11.661
Immutable	-11.661
sakai	-11.661
relative	-11.661
-2.2.1/	-11.661
Lab	-11.6612
rat	-11.6612
photos	-11.6616
solve	-11.6619
Codec	-11.6619
Atlas	-11.662
diagram	-11.6621
certificate	-11.6622
Wire	-11.6625
svc	-11.6626
androidx	-11.6627
urllib	-11.6628
SHOR	-11.6629
▁Networking	-11.6629
armor	-11.6632
Movie	-11.6632
▁DV	-11.6634
xor	-11.6637
icard	-11.664
accept	-11.664
prima	-11.6644
modes	-11.6645
ANGLE	-11.6648
writable	-11.6648
Evaluator	-11.6649
/99/99	-11.6649
Sum	-11.665
fullcalendar	-11.665
pipelines	-11.6655
sea	-11.6657
2.7.	-11.6659
Migrations	-11.6659
019.	-11.666
Selenium	-11.6667
arq	-11.6668
PhoneNumber	-11.6668
014.	-11.6669
conn	-11.667
230	-11.667
▁Image	-11.6671
menus	-11.6671
problem	-11.6672
animated	-11.6678
Score	-11.6679
Popup	-11.6681
▁Redis	-11.6681
705	-11.6683
DataTables	-11.6686
Shop	-11.6686
▁w	-11.6686
patient	-11.6687
Principal	-11.6687
Survey	-11.6687
XmlRpc	-11.6687
crunch	-11.6687
Hex	-11.6688
CX	-11.6689
tip	-11.6691
ansible	-11.6692
Blob	-11.6695
Anim	-11.67
coal	-11.6701
Sp	-11.6702
ado	-11.6702
289	-11.6704
Italic	-11.6706
ord	-11.6706
GUILayout	-11.6706
mailgun	-11.6707
certs	-11.6708
GC	-11.6709
cplus	-11.6709
don	-11.671
toc	-11.6713
Pr	-11.6714
Tracking	-11.6715
▁re	-11.6716
1251/	-11.672
hosted	-11.6721
cassettes	-11.6725
Period	-11.6725
palette	-11.6725
alien	-11.6726
Detector	-11.6727
alloy	-11.6728
131	-11.6734
▁repo	-11.6734
OT	-11.6736
station	-11.6743
2.82	-11.6744
lambda	-11.6745
xenon	-11.6751
compression	-11.6751
miz	-11.6754
sounds	-11.6759
nokogiri	-11.6764
mega	-11.6765
/63/63	-11.6766
▁WEB	-11.6767
OR	-11.6767
atlas	-11.6772
Green	-11.6775
2704/	-11.6775
/2019-	-11.6775
ascii	-11.6779
023.	-11.6781
FP	-11.6782
Split	-11.6783
legislators	-11.6784
Quote	-11.6784
regulator	-11.6784
boo	-11.6785
stuff	-11.6786
Startup	-11.6788
HL	-11.6793
total	-11.6795
Mark	-11.6796
omit	-11.6796
hosts	-11.6796
drawer	-11.6797
attach	-11.6803
Discord	-11.6803
rockstor	-11.6803
tactic	-11.6804
_75_	-11.6804
logos	-11.6804
sca	-11.6812
Slice	-11.6817
personal	-11.6819
090	-11.6821
financial	-11.6823
Redis	-11.6824
country	-11.6824
Sys	-11.6825
vol	-11.6826
Initializer	-11.6831
prob	-11.6833
mapreduce	-11.6837
constraints	-11.6839
symlink	-11.6841
producer	-11.6842
comparison	-11.6842
80211	-11.6845
Dump	-11.6846
Projects	-11.6846
Links	-11.6847
ioctl	-11.6848
IMG	-11.685
6_1	-11.6851
exchange	-11.6854
modifier	-11.6856
2012_	-11.6857
signals	-11.6857
Assign	-11.6859
fac	-11.6859
Blue	-11.6861
DumpRenderTree	-11.6862
▁patches	-11.6865
progressbar	-11.687
021.	-11.6873
WMS	-11.6873
grade	-11.6875
foot	-11.6878
pcm	-11.688
append	-11.6881
-0.9.5/	-11.6882
chan	-11.6888
cop	-11.6889
newview	-11.6893
plug	-11.6896
kns	-11.6898
pink	-11.69
dos	-11.6901
Handling	-11.6901
017.	-11.6905
iop	-11.6906
657	-11.691
Em	-11.6911
matic	-11.6912
documents	-11.6914
ffffff	-11.6921
NotFound	-11.6921
Upgrade	-11.6921
research	-11.6923
leds	-11.6923
fab	-11.6924
inflight	-11.6925
titan	-11.6926
monkey	-11.6927
dubbo	-11.6927
leg	-11.6929
joi	-11.6929
glib	-11.693
Draw	-11.6936
claim	-11.6938
mw	-11.6938
pane	-11.6939
ure	-11.694
suffix	-11.6941
Ldap	-11.6941
touchscreen	-11.6943
778	-11.6945
Dumper	-11.6946
▁sim	-11.6947
plant	-11.6948
edges	-11.6953
Styles	-11.6954
classpath	-11.6957
cab	-11.6958
silver	-11.696
Living	-11.696
Tr	-11.696
Terrain	-11.6961
Rel	-11.6963
Extended	-11.6964
addr	-11.6967
ipc	-11.6972
InputStream	-11.6978
introduction	-11.698
stendhal	-11.698
ninja	-11.698
▁skyline	-11.698
crash	-11.6981
▁easybuild	-11.6981
fork	-11.6982
ele	-11.6982
jb	-11.6983
nor	-11.6986
RP	-11.6987
FactoryTest	-11.6987
Attr	-11.6987
nbproject	-11.6989
customize	-11.6989
▁Forge	-11.6989
continuuity	-11.7
PRO	-11.7003
prim	-11.7003
linker	-11.7004
Classic	-11.7006
When	-11.7006
chai	-11.701
food	-11.7011
515	-11.7019
Picture	-11.702
018.	-11.7021
exome	-11.7023
Lens	-11.7026
xcode	-11.7031
playlist	-11.704
TE	-11.7041
gradlew	-11.7044
GHC	-11.7044
Roles	-11.7044
Smart	-11.7045
▁Animations	-11.705
Campaign	-11.7051
SD	-11.7052
organization	-11.7053
301	-11.7055
declarative	-11.7057
Low	-11.706
cloudfoundry	-11.706
qj	-11.7061
▁bundle	-11.7063
_00_	-11.7064
Ha	-11.7067
ink	-11.707
297	-11.7071
ava	-11.7073
association	-11.7073
corr	-11.7076
DL	-11.7077
RA	-11.7078
lk	-11.7078
Translator	-11.708
VR	-11.708
coveralls	-11.708
Quest	-11.7081
919	-11.7083
CON	-11.709
-2.1.	-11.7092
matlab	-11.7093
loss	-11.7094
Disk	-11.7094
430	-11.7094
AzurePowershell	-11.71
Manual	-11.71
-2.2.	-11.71
hci	-11.7103
timestamp	-11.7103
langtools	-11.7104
MetaData	-11.711
/6/6	-11.7116
anti	-11.7117
IAmNotified	-11.712
Marker	-11.7121
Specification	-11.7123
▁Gui	-11.7128
OpenGL	-11.713
Face	-11.713
EF	-11.7131
alerts	-11.7135
2020	-11.7139
Sevilla	-11.714
ffmpeg	-11.7141
finished	-11.7141
timesheet	-11.7146
Mgr	-11.7146
mex	-11.715
ley	-11.716
Gallery	-11.7161
0002	-11.7161
pupp	-11.7161
/97/97	-11.7163
Jump	-11.7164
xhr	-11.7164
bert	-11.7166
bun	-11.7167
compressed	-11.7169
Redirect	-11.7175
stylelint	-11.7175
Health	-11.7181
hamcrest	-11.7181
interpolate	-11.7181
twitlog	-11.7181
/92/92	-11.7182
HttpKernel	-11.7182
weex	-11.7186
niki	-11.7192
Comments	-11.7197
openhab	-11.7201
Reverse	-11.7201
calculator	-11.7201
Grav	-11.7202
▁product	-11.7204
Simulation	-11.7206
osenv	-11.7207
SDL	-11.7209
hat	-11.721
BL	-11.721
TZ	-11.7212
udp	-11.7216
sntp	-11.7221
avango	-11.7222
GitHub	-11.7222
perm	-11.7223
Li	-11.7223
Ko	-11.7226
libwebkit	-11.7229
Stage	-11.7229
observer	-11.7229
branding	-11.7231
objc	-11.7233
tslint	-11.7233
grav	-11.7234
tal	-11.7234
▁Services	-11.7234
golangci	-11.7235
-2.0.0	-11.7239
soap	-11.7239
linked	-11.7239
bgl	-11.7241
Defaults	-11.7245
ann	-11.7246
ceph	-11.7246
openapi	-11.7249
Permissions	-11.7251
ListItem	-11.7256
transformer	-11.7257
phpbb	-11.7258
checkers	-11.7258
bsd	-11.7261
▁listenbrainz	-11.7262
ctionbarsherlock	-11.7262
family	-11.7262
Polygon	-11.7262
activation	-11.7262
Struct	-11.7262
duktape	-11.7262
mage	-11.7267
sas	-11.7268
neuron	-11.7269
▁for	-11.727
rotate	-11.7271
Lang	-11.7275
transformation	-11.7279
seo	-11.7282
Conference	-11.7283
baseIs	-11.7286
slick	-11.7288
Make	-11.7288
fst	-11.7292
317	-11.7294
Hub	-11.7294
DataProvider	-11.7296
molecules	-11.73
/114/114	-11.7303
jubula	-11.7303
Motion	-11.7304
azuredeploy	-11.7304
-1.7.7/	-11.7305
028.	-11.7306
unset	-11.7309
OC	-11.7312
hazelcast	-11.7314
022.	-11.7317
Wall	-11.7317
294	-11.7317
NC	-11.7323
implementations	-11.7323
clipboard	-11.7324
Stop	-11.7325
Micro	-11.7329
Drawing	-11.7329
tei	-11.7329
arrows	-11.7342
Inc	-11.7342
haskell	-11.7344
Complete	-11.7344
Interval	-11.7345
Mouse	-11.7348
__47__	-11.7348
ste	-11.7349
ump	-11.7349
tdb	-11.735
-1.2.2/	-11.7359
europa	-11.7359
modular	-11.736
Macro	-11.7362
672	-11.7363
middle	-11.7364
2013-	-11.7364
EXPERIMENTAL	-11.7365
vertical	-11.7365
bnd	-11.7366
serializers	-11.7368
utter	-11.7369
▁unity	-11.7371
emp	-11.7377
020.	-11.7384
guest	-11.7384
knowledge	-11.7386
StaticMesh	-11.7386
hathor	-11.7386
Done	-11.7391
Training	-11.7393
Operators	-11.7397
fy	-11.7398
Distribution	-11.7405
▁root	-11.7406
jelly	-11.7406
iePlus	-11.7408
299	-11.7409
▁locale	-11.7412
ClassLoader	-11.7412
▁conf	-11.7414
ctr	-11.7415
jwt	-11.742
rewrite	-11.7421
pmc	-11.7421
__/__	-11.7422
eshu	-11.7423
stl	-11.7424
Basics	-11.7425
boilerplate	-11.7427
marketing	-11.7427
comedi	-11.7428
▁webserver	-11.7429
geolocation	-11.7431
135	-11.7433
lyc	-11.7434
aba	-11.7434
kd	-11.7435
NP	-11.7436
hour	-11.7437
initialize	-11.7442
named	-11.7446
Stock	-11.7448
pump	-11.7448
qrcode	-11.7453
identifier	-11.7453
▁try	-11.7456
nuc	-11.7457
ire	-11.7457
datetimepicker	-11.7469
ycrawl	-11.7471
-02-	-11.7472
dataTables	-11.7473
Drawer	-11.7475
timing	-11.7476
club	-11.7477
Ground	-11.7479
▁configs	-11.7479
dtd	-11.7481
KR	-11.7485
Handlers	-11.7485
▁Map	-11.7488
CHANGES	-11.749
physical	-11.749
Qu	-11.7495
154	-11.7495
tail	-11.7497
Accessor	-11.7497
nau	-11.7498
▁UI	-11.7502
-1.4.	-11.7506
128.	-11.7508
LFTincanLrs	-11.751
-84-655-	-11.751
/2013/06/	-11.7511
Mutable	-11.7512
was	-11.7516
Author	-11.7518
295	-11.7518
camp	-11.7522
▁board	-11.7523
ub	-11.7525
TextField	-11.7526
ave	-11.753
▁profile	-11.7531
Umbraco	-11.7531
success	-11.7531
SRV	-11.7533
centos	-11.7537
semi	-11.7546
▁doxygen	-11.7546
grim	-11.7547
170	-11.755
initializers	-11.7551
Animated	-11.7553
/2.0.0-	-11.7553
Uri	-11.7554
badge	-11.7556
Cmd	-11.7557
gitlab	-11.7559
384	-11.7559
▁report	-11.7561
179	-11.757
Valid	-11.7573
shuffle	-11.7574
Tinymce	-11.7574
easyconfigs	-11.7576
Actor	-11.7576
/45/45	-11.7577
obs	-11.7578
zones	-11.7584
jk	-11.7586
▁to	-11.7587
uart	-11.7589
OSX	-11.7591
Optimization	-11.7594
rem	-11.7596
umul	-11.7598
mid	-11.7606
548	-11.7606
zy	-11.7606
080	-11.7611
255	-11.7615
450	-11.7616
Child	-11.7616
critic	-11.7616
Modifier	-11.7616
rag	-11.7618
wise	-11.7619
south	-11.762
SO	-11.7626
199	-11.7635
Yaml	-11.7637
Lucene	-11.7637
Organization	-11.7637
/8.5.0.	-11.7637
Detection	-11.7637
▁dhis	-11.764
NX	-11.764
alter	-11.7643
▁Storm	-11.7643
fabs	-11.7647
supported	-11.7647
ING	-11.7648
pch	-11.7651
bal	-11.7652
italic	-11.7654
trunc	-11.7656
reactive	-11.7658
blueprint	-11.7658
ajd	-11.766
Zoom	-11.766
022	-11.7664
Cake	-11.7666
relationship	-11.7674
Traits	-11.7675
quality	-11.7675
4_14_	-11.7685
iw	-11.7687
igma	-11.7689
Why	-11.7689
projection	-11.7694
085	-11.7695
animations	-11.7699
Deprecated	-11.7701
NOTICE	-11.7701
Cap	-11.7701
▁MvcApplication	-11.7701
torrent	-11.7701
BuilderTest	-11.7703
270	-11.7706
TestRunner	-11.7709
keyword	-11.7712
Drag	-11.7712
quest	-11.7713
LA	-11.7714
dompdf	-11.7717
XS	-11.7718
notebook	-11.772
think	-11.772
Grammar	-11.7722
Business	-11.7722
epsilon	-11.7722
WK	-11.7724
DBSource	-11.7726
gra	-11.7726
Updater	-11.7726
320	-11.7727
dim	-11.7731
inspect	-11.7732
024.	-11.7733
1024	-11.7738
bplist	-11.774
optimization	-11.7744
trie	-11.7746
Fi	-11.7746
keymaps	-11.7747
mms	-11.7749
030.	-11.7749
ori	-11.7752
▁fixtures	-11.7754
regenerate	-11.7757
fact	-11.7761
IF	-11.7764
ima	-11.7764
Concept	-11.7765
MetaCyc	-11.7765
Laser	-11.7766
ein	-11.7767
ious	-11.7767
Portal	-11.7768
Named	-11.777
168	-11.7771
060	-11.7771
mutex	-11.7779
campaign	-11.7783
inet	-11.7783
__44___	-11.7787
tweet	-11.7787
hisp	-11.779
annotate	-11.7791
Commit	-11.7791
▁chapter	-11.7795
serd	-11.7797
Conditional	-11.7797
LE	-11.7798
ack	-11.7801
sprint	-11.7803
bulk	-11.7808
XY	-11.7809
mli	-11.7812
_3_01_	-11.7813
DSP	-11.7816
primitives	-11.7816
Any	-11.7819
MacOS	-11.782
comps	-11.7823
converters	-11.7824
MJRefresh	-11.783
aggregation	-11.783
SLOF	-11.783
ocean	-11.783
tiwlan	-11.783
Chunk	-11.783
cpufreq	-11.783
Invoice	-11.7831
pipes	-11.7832
expm	-11.7833
Themes	-11.7834
sender	-11.7838
-3.0.	-11.7841
▁language	-11.7843
trees	-11.7843
TestBase	-11.7843
Gtk	-11.7845
lets	-11.7845
Prop	-11.7847
▁Movie	-11.7848
oi	-11.785
stores	-11.7851
administration	-11.7851
resume	-11.7856
Pdf	-11.7858
webservice	-11.7858
connectors	-11.7864
showcases	-11.7868
expect	-11.7869
purchase	-11.7869
Aggregate	-11.7873
kilda	-11.7873
sflphone	-11.7873
Indirect	-11.7876
mis	-11.7883
bundled	-11.7883
DF	-11.7884
sheka	-11.7888
Slik	-11.7892
Ali	-11.7893
120.	-11.7894
vulkan	-11.7895
piece	-11.79
Routine	-11.79
335	-11.79
tcc	-11.79
▁la	-11.7907
ations	-11.7909
netty	-11.7909
ups	-11.791
PG	-11.7912
deeplearning	-11.7914
365	-11.7915
translator	-11.7916
English	-11.7917
Accessibility	-11.7917
NewCommunication	-11.7917
Real	-11.7917
snow	-11.7918
lon	-11.7919
_4_2	-11.7919
Relation	-11.7919
environments	-11.7924
AZ	-11.7928
shiro	-11.7929
636	-11.793
uniq	-11.7932
IHTML	-11.7932
▁dynamic	-11.7933
MVC	-11.7934
smp	-11.7936
Place	-11.7938
Advertising	-11.7938
countdown	-11.7941
Define	-11.7942
iris	-11.7945
026.	-11.7951
-0.7	-11.7951
mad	-11.7959
loops	-11.796
Aggregator	-11.796
Dummy	-11.796
susy	-11.7961
ReactiveObjCDemo	-11.7961
238	-11.7965
tape	-11.7965
Fixed	-11.7969
catch	-11.797
phi	-11.797
fig	-11.7973
ight	-11.7974
Hi	-11.7979
Ejemplos	-11.7982
Pagination	-11.7982
eastern	-11.7982
battle	-11.7983
kespi	-11.7985
xyq	-11.7986
DT	-11.7987
relationships	-11.7988
Aware	-11.7992
ification	-11.7999
ying	-11.7999
wse	-11.8002
kl	-11.8003
arquillian	-11.8004
duration	-11.8004
freq	-11.8005
▁management	-11.801
▁design	-11.8016
Bottom	-11.8021
Parent	-11.8022
▁Coo	-11.8024
telemetry	-11.8024
▁Note	-11.8025
thrd	-11.8026
Blur	-11.8026
priest	-11.8026
slik	-11.8028
interceptor	-11.8028
El	-11.8028
ham	-11.8029
258	-11.8033
mmu	-11.8034
curl	-11.804
RF	-11.8041
288	-11.8043
wr	-11.8043
browse	-11.8048
ZMSharing	-11.8048
DompdfBundle	-11.8048
Gruntfile	-11.8048
convolution	-11.8048
garage	-11.8049
dispatch	-11.8049
seg	-11.8051
that	-11.8052
284	-11.8054
153	-11.8058
_03.	-11.8058
gun	-11.806
DTO	-11.8061
Head	-11.8064
jump	-11.8064
Threading	-11.8066
▁util	-11.8067
aces	-11.807
interactive	-11.8072
acp	-11.8073
027.	-11.8078
solvers	-11.8084
hint	-11.8085
ons	-11.8087
openeshop	-11.8091
Overview	-11.8092
vcf	-11.8094
stress	-11.8095
025.	-11.8096
raid	-11.8103
tracks	-11.811
central	-11.8113
Missing	-11.8115
Capture	-11.8115
reject	-11.8116
ory	-11.8118
asap	-11.8122
mak	-11.8124
AV	-11.8126
installed	-11.8128
nut	-11.8129
Res	-11.8135
308	-11.8136
1_1	-11.8136
Campus	-11.8137
margin	-11.8137
797	-11.8144
nco	-11.8145
Notifications	-11.8147
ben	-11.815
sur	-11.8157
029.	-11.8157
bro	-11.8162
209	-11.8163
UTF	-11.8164
cnt	-11.8165
736	-11.8168
-0.9.1	-11.8172
zza	-11.8173
Col	-11.8174
Ged	-11.8177
DM	-11.8178
renderers	-11.818
bios	-11.818
CodeSniffer	-11.8182
schedoscope	-11.8182
speech	-11.8182
_8_81.0/	-11.8182
Unique	-11.8183
equ	-11.8183
765	-11.8184
Radio	-11.8184
ari	-11.8185
Poll	-11.8186
wolf	-11.8187
Sk	-11.8188
▁Package	-11.819
Subscriptions	-11.8191
ries	-11.8193
746	-11.8193
jodd	-11.8196
qLib	-11.8197
Pay	-11.8198
▁pidgin	-11.82
Snow	-11.8201
437	-11.8202
336	-11.8203
tive	-11.8205
ery	-11.8209
decorators	-11.8211
datatable	-11.8213
wsu	-11.8214
404.	-11.8214
CMS	-11.8215
cou	-11.8219
1.7.0	-11.8226
Dependencies	-11.8227
sencha	-11.8229
pde	-11.8229
cher	-11.823
-16-	-11.8231
ncia	-11.8231
Dispatcher	-11.8234
▁books	-11.8235
ListView	-11.8235
Fe	-11.8238
sense	-11.8239
▁League	-11.824
jd	-11.8243
intrinsics	-11.8247
fciqmc	-11.8249
CodeMirror	-11.825
kde	-11.8255
967	-11.8259
PH	-11.8266
duk	-11.8266
Centre	-11.8269
balance	-11.8271
Tanks	-11.8272
Success	-11.8272
ystery	-11.8272
relay	-11.8272
execute	-11.8272
libil	-11.8273
▁Application	-11.8274
ManagerTest	-11.8275
Diagram	-11.8278
specification	-11.8279
CommandLine	-11.828
▁SDK	-11.8284
classifier	-11.8285
Acc	-11.8286
Cas	-11.8286
129	-11.8291
SB	-11.8292
barbarians	-11.8294
renalware	-11.8294
hrtf	-11.8295
Animator	-11.8295
bnx	-11.8296
where	-11.8297
lat	-11.8297
Special	-11.8298
optional	-11.83
wip	-11.8307
▁fonts	-11.831
686	-11.8316
ViewModels	-11.8317
radeon	-11.8317
Comm	-11.8318
harness	-11.8319
integrations	-11.8319
signing	-11.8324
subscribe	-11.8324
-0.9	-11.8326
lean	-11.8329
519	-11.8334
Bind	-11.8335
negotiator	-11.834
HelloWorld	-11.834
ueditor	-11.8342
Unsafe	-11.8344
▁spider	-11.8344
Boot	-11.8344
openshift	-11.8347
elk	-11.8351
139	-11.8357
Catch	-11.8359
616	-11.8362
▁ld	-11.8362
uce	-11.8362
535	-11.8363
mozilla	-11.8363
sbhome	-11.8366
036.	-11.8369
curr	-11.8375
KW	-11.8376
oli	-11.8376
ail	-11.8376
telia	-11.8378
▁specification	-11.838
hide	-11.8382
lig	-11.8382
presenter	-11.8382
Coverage	-11.8384
declaration	-11.8384
bidprofile	-11.8385
▁(1)/	-11.8386
NuGet	-11.8386
ftdi	-11.839
accordion	-11.8391
bbb	-11.8396
Imp	-11.8399
bas	-11.8401
TO	-11.8404
HR	-11.8404
MenuItem	-11.8405
orient	-11.8406
Prefix	-11.8407
EXPECTED	-11.8408
ontology	-11.8408
builtins	-11.841
hugo	-11.8412
saga	-11.8413
hip	-11.8415
decoding	-11.8415
▁new	-11.8416
translated	-11.8416
repl	-11.8418
tiled	-11.8422
based	-11.8422
oz	-11.8423
wide	-11.8426
pLD	-11.8426
Dir	-11.8427
wingset	-11.843
flip	-11.8431
Depth	-11.8431
essentials	-11.8431
DomPDF	-11.8431
AzureStackAdmin	-11.8432
Sidebar	-11.8432
Developer	-11.8434
sigma	-11.8434
astro	-11.8437
mmna	-11.8437
-0.6	-11.8439
825	-11.844
cdf	-11.8444
Ant	-11.8446
verror	-11.8447
mz	-11.8452
Atom	-11.8453
insight	-11.8454
kolibri	-11.8454
Facade	-11.8454
collapse	-11.8454
yl	-11.8456
▁Client	-11.8457
jet	-11.8458
have	-11.8462
293	-11.847
characters	-11.8472
imagepipeline	-11.8472
transactions	-11.8474
optimus	-11.8477
__34__	-11.8478
accessor	-11.8482
shareddata	-11.8493
Val	-11.8494
smb	-11.8495
sharp	-11.8497
attendance	-11.85
rabbitmq	-11.8501
▁geo	-11.8502
elementary	-11.8502
ala	-11.8505
aaa	-11.8509
.01-	-11.8512
DK	-11.8517
Cron	-11.8517
818	-11.8518
gain	-11.8518
repos	-11.8519
Compilation	-11.8523
mockery	-11.8524
symmetric	-11.8524
▁bigdata	-11.8525
Lexer	-11.8526
590	-11.8532
ani	-11.8532
sinh	-11.8537
refman	-11.8539
Metric	-11.854
problems	-11.8542
▁React	-11.8542
Some	-11.8543
eight	-11.8547
Pacific	-11.8547
policies	-11.8547
Borderlands	-11.8547
webkitpy	-11.8548
Expressions	-11.8552
neg	-11.8552
kern	-11.8554
614	-11.8561
euro	-11.8565
CU	-11.8569
IdealGraph	-11.857
cookiecutter	-11.857
198	-11.8572
Sender	-11.8572
Movement	-11.8572
534	-11.8574
wlan	-11.8575
envify	-11.8576
ctags	-11.8579
▁V	-11.8582
wmf	-11.8583
mir	-11.8584
wei	-11.859
Student	-11.8593
WORLD	-11.8593
chemicalWizardry	-11.8593
Additions	-11.8593
potlatch	-11.8593
horizontal	-11.8593
/101/101	-11.8593
dri	-11.8595
selfbus	-11.8596
PagesBundle	-11.8599
ipad	-11.8601
Topic	-11.8602
▁00/	-11.8606
courses	-11.8607
gmm	-11.861
▁Theme	-11.8611
previews	-11.8617
kingdoms	-11.8617
flutter	-11.8617
▁vcproj	-11.8619
697	-11.8626
defined	-11.8628
cmu	-11.8628
▁tutorials	-11.8628
fontsize	-11.8635
LPC	-11.8636
formidable	-11.864
Coordinate	-11.864
hierarchy	-11.864
maestria	-11.864
pwc	-11.864
25519/	-11.864
UT	-11.8645
Gra	-11.8646
273	-11.8651
OLD	-11.8654
collate	-11.866
025	-11.8661
▁analytics	-11.8663
discord	-11.8667
138	-11.8667
Analyzers	-11.8679
▁ie	-11.868
unscop	-11.868
Gl	-11.8684
Assessment	-11.8687
recursive	-11.8687
pygmentize	-11.8687
▁libfreerdp	-11.8687
Poly	-11.8687
Recipe	-11.8687
rejection	-11.8688
714	-11.8688
Three	-11.869
shardingsphere	-11.869
Docker	-11.869
plupload	-11.8693
280	-11.8695
tatoo	-11.8696
arguments	-11.8699
CK	-11.8702
lamp	-11.8702
topo	-11.8702
weight	-11.8702
gtx	-11.8709
▁functional	-11.871
education	-11.8711
Zero	-11.8711
Msg	-11.8712
STK	-11.8715
sleep	-11.8728
hcl	-11.8728
Highlight	-11.8728
-2.3	-11.873
pv	-11.8732
496	-11.8732
ProximitySample	-11.8734
arithmetic	-11.8734
4-4	-11.8735
faye	-11.8741
filename	-11.8742
Ol	-11.8743
033.	-11.8746
031.	-11.8747
Timeline	-11.8748
EP	-11.8748
MAC	-11.875
Lighting	-11.8752
rbac	-11.8753
MurderM	-11.8758
Honeybee	-11.8758
warehouse	-11.8758
attempt	-11.8758
highcharts	-11.8758
-4.13/	-11.8759
850	-11.8759
Equal	-11.876
len	-11.876
xslt	-11.8764
blas	-11.8765
dsdk	-11.8766
Pet	-11.8768
769	-11.877
rain	-11.8771
▁head	-11.8771
crawler	-11.8772
808	-11.8775
Forward	-11.8778
Creation	-11.8782
cosh	-11.8782
Peak	-11.8783
graphic	-11.8784
281	-11.8789
296	-11.879
contains	-11.8795
facet	-11.8796
difference	-11.8798
770	-11.8799
tanh	-11.88
mel	-11.88
servers	-11.8802
slot	-11.8804
Hu	-11.8805
vulnerability	-11.8805
upper	-11.8807
210	-11.8808
filesystems	-11.8808
cookies	-11.8809
mediabase	-11.881
favicons	-11.8815
hypot	-11.8816
AK	-11.8817
145	-11.8818
526	-11.8821
atm	-11.8822
computing	-11.8829
Parsing	-11.8829
Cycle	-11.8829
Terminal	-11.8829
Focus	-11.8829
scanning	-11.883
tbb	-11.883
Hello	-11.8831
Atomic	-11.8833
preprocessing	-11.8833
VA	-11.8837
allow	-11.8838
744	-11.8844
▁world	-11.8846
ToArray	-11.8848
docbook	-11.8851
Bitmap	-11.8852
Replace	-11.8852
actuator	-11.8853
destroy	-11.8853
apigateway	-11.8856
Contacts	-11.8856
_4_3	-11.8859
568	-11.8859
290	-11.8861
lams	-11.8864
PluginManager	-11.8875
currency	-11.8877
Partial	-11.8877
unicorn	-11.8877
instructions	-11.8877
Parts	-11.8878
slack	-11.8879
WebApplication	-11.888
URI	-11.8882
kie	-11.8883
NE	-11.8886
today	-11.8891
scenes	-11.8894
deal	-11.8898
-3.3	-11.8901
manipulation	-11.8901
worth	-11.8901
dream	-11.8902
incremental	-11.8902
sat	-11.8902
Shipping	-11.8902
Todo	-11.8905
Outline	-11.8907
modify	-11.8907
bionetwork	-11.8912
ltk	-11.8918
scs	-11.8921
cleanup	-11.8923
757	-11.8925
Community	-11.8926
iam	-11.8927
slash	-11.8928
Cast	-11.893
nest	-11.893
mot	-11.8936
▁win	-11.8939
filtering	-11.8941
pcre	-11.8946
Jar	-11.8947
949	-11.8949
EventHandler	-11.895
fancybox	-11.895
▁Introduction	-11.8954
tconstruct	-11.8954
cla	-11.8954
350	-11.8954
visualizations	-11.8956
editorconfig	-11.8964
▁ansible	-11.8969
AspNet	-11.897
ret	-11.8972
distance	-11.8973
Tu	-11.8973
White	-11.8973
SUNNYSIDE	-11.8974
tattoo	-11.8974
794	-11.8975
UserGuide	-11.8977
jinja	-11.8979
136	-11.8979
javaxmi	-11.898
appeng	-11.898
disc	-11.898
204	-11.8981
910	-11.8982
managers	-11.8985
Importer	-11.8991
▁generators	-11.8994
Proc	-11.8995
toast	-11.8996
dock	-11.8997
persistent	-11.8998
osd	-11.8999
proposal	-11.9
Beta	-11.9
Dashlet	-11.9002
Clock	-11.9003
ProjectSettings	-11.9004
chroot	-11.9011
blockchain	-11.9011
visitors	-11.9013
alchemy	-11.9019
vehicle	-11.9022
acosh	-11.9022
Individual	-11.9022
perception	-11.9022
GoodNews	-11.9022
marketplace	-11.9023
Discovery	-11.9024
thumbnail	-11.9024
Spark	-11.9025
pubsub	-11.9026
SWE	-11.9028
kindeditor	-11.9028
tensorflow	-11.9036
fce	-11.904
UIKit	-11.9041
▁agent	-11.9042
448	-11.9042
333	-11.9044
871	-11.9045
278	-11.9046
Remastered	-11.9047
▁Multi	-11.9047
evoked	-11.9047
Pivot	-11.9047
Prompt	-11.9047
303	-11.9048
TM	-11.9048
Diagnostic	-11.9049
Round	-11.9052
Universal	-11.9057
/2017/	-11.9057
izing	-11.9057
Pan	-11.9057
▁maven	-11.9059
DC	-11.9061
▁Study	-11.9066
peak	-11.9066
749	-11.9067
▁usr	-11.9069
MBED	-11.9071
arduino	-11.9071
cake	-11.9077
650	-11.9077
034.	-11.908
▁Fran	-11.908
/2004/	-11.9081
practica	-11.9087
die	-11.9088
atanh	-11.9088
alg	-11.9088
Credentials	-11.9088
203	-11.9089
gk	-11.9089
MR	-11.9089
sesv	-11.909
bookmark	-11.909
frc	-11.9093
53796	-11.9095
hist	-11.9096
balancer	-11.9097
fontcolor	-11.9097
rtk	-11.9098
bidi	-11.9098
gql	-11.9103
710	-11.9104
six	-11.9105
park	-11.9105
SV	-11.9106
exporter	-11.9111
-1.8.	-11.9114
Quad	-11.9115
Arguments	-11.9116
▁Common	-11.9116
solution	-11.912
rapidoid	-11.912
surefire	-11.912
Persistent	-11.9121
sse	-11.9121
DNS	-11.9122
apere	-11.9123
letter	-11.9124
restrictions	-11.9126
shipw	-11.9127
powered	-11.9127
JPA	-11.9129
▁2.7/	-11.9131
fround	-11.9132
literal	-11.9133
NI	-11.9134
▁task	-11.9135
reasoner	-11.9136
asinh	-11.9137
imm	-11.9142
ACSPanelBundle	-11.9145
camelcase	-11.9146
Variant	-11.9147
737	-11.9147
TT	-11.915
Relationship	-11.9151
Repeat	-11.9152
nuget	-11.9153
tick	-11.9158
closed	-11.9158
caf	-11.9158
819	-11.9158
libotr	-11.9159
decl	-11.9166
meshes	-11.9168
pug	-11.9168
AMD	-11.9169
assistant	-11.9169
mycollab	-11.917
lower	-11.917
tower	-11.917
cryp	-11.9171
hole	-11.9171
delegate	-11.9172
▁jvm	-11.9173
dra	-11.9174
▁licenses	-11.9176
WPSh	-11.9177
homepage	-11.9179
rgb	-11.9181
ether	-11.9185
SRC	-11.9186
Mso	-11.9187
binder	-11.9188
-15-	-11.9189
ordered	-11.9191
fedora	-11.9194
transpiler	-11.9194
-300	-11.9196
kspread	-11.9199
/1.2/	-11.92
▁Only	-11.92
702	-11.9201
-1.9.	-11.9206
831	-11.9208
afe	-11.9209
305	-11.9209
014	-11.9211
edi	-11.9214
Gu	-11.9215
mos	-11.9217
criteria	-11.9219
PowerShell	-11.922
children	-11.9222
070	-11.9223
544	-11.9226
brew	-11.9229
-3.1.	-11.9235
throw	-11.9241
npc	-11.9242
Toggle	-11.9244
Categories	-11.9244
parisc	-11.9244
girl	-11.9245
glfw	-11.9246
BF	-11.9246
SG	-11.9247
pak	-11.9248
italics	-11.9249
particles	-11.925
akstat	-11.9251
▁deploy	-11.9252
Specs	-11.9253
etifier	-11.9259
Jo	-11.9259
040.	-11.9267
Persist	-11.9267
FL	-11.9269
protractor	-11.9269
Guard	-11.9269
nexus	-11.9269
plasma	-11.927
▁openeshop	-11.927
StructureMap	-11.9271
Firebase	-11.9273
Exam	-11.9274
148	-11.9274
HD	-11.9275
cri	-11.9275
Blocks	-11.9283
lake	-11.9284
crop	-11.9284
lz	-11.929
FM	-11.9292
473	-11.9293
百思不得姐	-11.9294
anonymous	-11.9294
exclude	-11.9294
implicit	-11.9296
Clean	-11.93
14782	-11.9302
/8.8.0	-11.9317
Frugal	-11.9319
Weather	-11.9319
146	-11.9319
/33/33	-11.9321
974	-11.9321
showblocks	-11.9323
265	-11.9324
cq	-11.933
Spi	-11.9331
Pointer	-11.9332
Su	-11.9336
mic	-11.9339
298	-11.934
thumbnails	-11.9342
TableView	-11.9343
pojo	-11.9344
Std	-11.9344
hidden	-11.9345
469	-11.935
qh	-11.935
lSite	-11.9352
shaman	-11.9354
LU	-11.9354
Bank	-11.9355
0.1/	-11.9356
strat	-11.936
536	-11.9367
orb	-11.9368
acoustic	-11.9369
wikipedia	-11.9369
Using	-11.937
Encryption	-11.937
Ru	-11.937
arena	-11.9372
tel	-11.9373
predef	-11.9374
▁Simple	-11.9376
than	-11.9376
offline	-11.9377
798	-11.9381
matches	-11.9382
▁dss	-11.9389
▁week	-11.9391
144.	-11.9392
dygraphs	-11.9395
pinctrl	-11.9395
visible	-11.9395
interprocess	-11.9396
texidoc	-11.9398
campaigns	-11.9399
fuse	-11.9399
Ver	-11.9399
dsc	-11.9401
WebClient	-11.9404
qp	-11.9406
sil	-11.9408
nik	-11.9408
rid	-11.9408
▁Inc	-11.9414
032.	-11.9414
!	-11.942
emailer	-11.942
vagrant	-11.942
269	-11.9424
Studios	-11.9426
revolution	-11.9428
149	-11.9428
ecc	-11.943
cssmin	-11.9432
nih	-11.9434
consul	-11.9434
Beaute	-11.9445
intersection	-11.9448
hammer	-11.9448
Errors	-11.9451
799	-11.9459
required	-11.946
_1_0	-11.9462
restart	-11.9462
vote	-11.9464
vk	-11.9468
419	-11.947
EBox	-11.9471
Bearded	-11.9471
Identifier	-11.9471
tem	-11.9471
twbs	-11.9473
Localization	-11.9476
hwsim	-11.9477
cbrt	-11.9477
transports	-11.9478
103.	-11.9481
▁testing	-11.9483
Gdata	-11.9495
cont	-11.9498
codesniffer	-11.9498
Mongo	-11.9499
neurotools	-11.9499
ems	-11.95
Exchange	-11.95
Rx	-11.95
546	-11.9501
triggers	-11.9505
divide	-11.9506
292	-11.9506
035.	-11.9509
027	-11.9513
256.	-11.9513
750	-11.9514
lds	-11.9516
asc	-11.9517
isation	-11.9518
PO	-11.9519
BO	-11.9521
ü	-11.9522
correction	-11.9525
630	-11.9527
stacktrace	-11.9527
Headless	-11.9528
questions	-11.9532
provision	-11.9532
Sparse	-11.9536
IE	-11.9539
-0.8	-11.9539
BG	-11.9542
repeating	-11.9543
zanata	-11.9547
Automation	-11.9548
programacion	-11.9548
generalized	-11.9548
549	-11.9548
snakeyaml	-11.9549
806	-11.9555
infer	-11.9563
QO	-11.9563
766	-11.9566
coeus	-11.9573
547	-11.9573
Notifier	-11.9574
during	-11.9574
alex	-11.9576
Artifact	-11.958
inner	-11.9581
sitemap	-11.9581
four	-11.9587
assertions	-11.9587
Pos	-11.959
opam	-11.959
redefine	-11.9591
▁bzr	-11.9591
FE	-11.9592
iostreams	-11.9595
Assert	-11.9598
Literal	-11.9598
merchant	-11.9599
Django	-11.9599
Facebook	-11.9599
protein	-11.9599
colour	-11.96
613	-11.96
WinRT	-11.9601
▁Zone	-11.9601
staff	-11.9603
MK	-11.9604
Representation	-11.9604
sugar	-11.9607
street	-11.9608
iomgr	-11.9609
defines	-11.9609
gw	-11.9611
560	-11.9611
275	-11.9613
Standards	-11.9616
glue	-11.9616
classical	-11.9617
slicer	-11.962
dig	-11.9621
visibility	-11.9625
tga	-11.9625
abbrev	-11.9625
897	-11.9626
Quant	-11.9626
Snap	-11.9627
oak	-11.9628
Computer	-11.9629
▁ghost	-11.9629
Cwise	-11.9629
-003	-11.963
texi	-11.9632
CodeGen	-11.9634
perfschema	-11.9635
Gene	-11.9635
752	-11.9635
lte	-11.9637
079	-11.9639
Oct	-11.9639
556	-11.964
015	-11.9641
HK	-11.9642
nil	-11.9642
responses	-11.9643
351	-11.9643
kerby	-11.9643
talks	-11.9649
beat	-11.965
weights	-11.965
erubis	-11.9651
forestry	-11.9651
DocBook	-11.9652
fund	-11.9655
derby	-11.9657
Sdk	-11.9657
Offset	-11.9657
483	-11.966
Downloader	-11.9667
OK	-11.9668
DP	-11.9669
Ca	-11.9669
019	-11.967
iterators	-11.9671
ique	-11.9671
Loading	-11.9671
037.	-11.9676
Origin	-11.9677
Iterable	-11.9677
overlap	-11.9677
Tuple	-11.9677
755	-11.9678
unidecode	-11.9679
ImplTest	-11.9681
pam	-11.9685
aspect	-11.9686
HU	-11.9687
structured	-11.9692
OF	-11.9696
bill	-11.9698
▁commands	-11.9698
_5.0.002/	-11.9703
ntroduccion	-11.9703
unused	-11.9703
appverse	-11.9703
fullscreen	-11.9705
breakpoint	-11.9705
robo	-11.9705
grad	-11.9706
xed	-11.9707
279	-11.971
ImageFilter	-11.9712
316	-11.9713
epochs	-11.9715
444	-11.9715
ido	-11.9719
488	-11.9721
ADV	-11.9721
Metal	-11.9723
Ed	-11.9724
sprintf	-11.9726
-1.8.1	-11.9728
804	-11.9728
sebastian	-11.9729
enumerable	-11.9729
Sha	-11.9729
Gemfile	-11.973
bitmap	-11.9732
waas	-11.9734
▁iOS	-11.9735
obda	-11.9736
▁portal	-11.9737
221	-11.9741
authors	-11.9741
clz	-11.9742
sti	-11.9742
AA	-11.9748
best	-11.975
67646	-11.9754
ipd	-11.9754
▁videojuegos	-11.9755
typography	-11.9755
/2017/09/	-11.9756
KS	-11.9758
109.	-11.9758
cid	-11.976
eli	-11.9761
▁hazelcast	-11.9767
tun	-11.9767
▁2017	-11.9768
DAS	-11.977
connected	-11.9771
bboss	-11.9773
fastjson	-11.9779
mmseg	-11.978
711	-11.9781
spr	-11.9784
▁azure	-11.9784
helm	-11.9788
▁hw	-11.9792
Ray	-11.9793
vir	-11.9796
352	-11.9796
abb	-11.9801
930	-11.9802
Binder	-11.9803
corners	-11.9803
494	-11.9804
OM	-11.9804
704	-11.9807
zigbee	-11.9808
-0.14.0/	-11.9808
Broker	-11.9808
outdated	-11.9808
histogram	-11.9808
watson	-11.9808
Pick	-11.9808
▁utilities	-11.9808
redhat	-11.9809
Month	-11.9809
Cert	-11.9809
EGit	-11.9814
OutputStream	-11.9814
combo	-11.9819
PI	-11.9819
wood	-11.9822
latn	-11.9823
enti	-11.9828
Regex	-11.9834
detached	-11.9835
▁foundation	-11.9838
modals	-11.9844
nfc	-11.9844
623	-11.985
ObjC	-11.985
537	-11.9851
/2008/	-11.9854
scaffold	-11.9856
860	-11.986
MainMenu	-11.986
iveSecondLianXi	-11.986
Parallel	-11.986
MindSensors	-11.986
robust	-11.986
617	-11.9861
polymer	-11.9861
counters	-11.9861
684	-11.9863
slides	-11.9864
748	-11.9871
homepagen	-11.9872
▁NO	-11.9873
Extend	-11.9873
Feedback	-11.9876
SHA	-11.9877
stencils	-11.9878
vtk	-11.9879
205	-11.9879
767	-11.9882
docutils	-11.9882
wks	-11.9886
485	-11.9887
frost	-11.9888
carto	-11.9888
datacollector	-11.9889
▁cg	-11.9893
RM	-11.9894
GraphicTest	-11.9894
libuv	-11.9895
012	-11.9897
lam	-11.9899
ToString	-11.9899
264	-11.9899
omp	-11.9901
Rank	-11.9901
Vo	-11.9902
vl	-11.9904
isp	-11.9907
376	-11.9911
▁contrail	-11.9913
Configure	-11.9913
stroom	-11.9913
Invocation	-11.9914
discussion	-11.9914
radius	-11.9914
freebsd	-11.9914
ECOS	-11.9915
discard	-11.9916
UA	-11.9917
753	-11.9917
▁mail	-11.9919
fresh	-11.992
FO	-11.992
intermediate	-11.992
434	-11.9921
listeners	-11.9922
avja	-11.9922
iva	-11.9923
SF	-11.9926
keeper	-11.9926
robots	-11.9938
friend	-11.994
Bullet	-11.994
Academy	-11.994
warrior	-11.994
÷	-11.994
ø	-11.994
octeon	-11.994
Warning	-11.9941
True	-11.9941
ccn	-11.9942
couchbase	-11.9944
snmp	-11.9948
▁out	-11.9949
▁indexer	-11.9954
383	-11.9955
tran	-11.9956
stylesheet	-11.9958
trade	-11.9959
LO	-11.9959
Cached	-11.996
brig	-11.996
018	-11.996
rib	-11.9962
LI	-11.9962
libffi	-11.9964
recyclerview	-11.9967
¿	-11.9967
Î	-11.9967
JPG	-11.9967
86_32-	-11.9967
RTShader	-11.9967
ravestone	-11.9968
dna	-11.997
globalization	-11.9971
980	-11.9972
dbg	-11.9973
551	-11.9973
fiddle	-11.9974
exists	-11.9975
flatMap	-11.9979
747	-11.9983
TestData	-11.9985
gopkg	-11.9988
emotion	-11.999
Owin	-11.999
unk	-11.9991
punycode	-11.9994
и	-11.9994
1⁄2	-11.9994
Â	-11.9994
É	-11.9994
476	-11.9995
202	-11.9995
stderr	-11.9995
Linked	-11.9998
rml	-11.9999
/2.2.0/	-12.0002
istic	-12.0002
605	-12.0002
ledger	-12.0005
23.0.1	-12.0005
206	-12.0007
▁auto	-12.0009
Csv	-12.001
true	-12.0011
locate	-12.0014
268	-12.0016
Sans	-12.0017
ika	-12.0018
▁flat	-12.0018
147	-12.0019
morris	-12.0021
concrete	-12.0021
§	-12.0021
Æ	-12.0021
Ø	-12.0021
Placeholder	-12.0021
hazard	-12.0021
373	-12.0021
InfoP	-12.0023
950	-12.0024
dates	-12.0026
eff	-12.0026
Rect	-12.0029
aic	-12.0029
suites	-12.0034
2103	-12.0039
replica	-12.0041
Sem	-12.0041
orig	-12.0041
Sets	-12.0046
federation	-12.0048
TODO	-12.0048
.9712	-12.0049
jqueryui	-12.0051
▁dashboard	-12.0053
see	-12.0058
quotes	-12.0058
970	-12.0059
▁Wikipedia	-12.0064
ServiceProvider	-12.0066
obi	-12.0068
Syringe	-12.0075
Avatar	-12.0075
navigator	-12.0075
lapack	-12.0077
Accounts	-12.0078
359	-12.0081
311	-12.0083
738	-12.0083
gan	-12.0083
707	-12.0086
prober	-12.0086
5_1	-12.0086
malloc	-12.0087
Configurable	-12.009
trip	-12.0093
Generation	-12.0101
Battle	-12.0102
references	-12.0103
155	-12.0104
payload	-12.0104
vfs	-12.0105
479	-12.0105
OData	-12.0107
Ship	-12.0107
538	-12.011
ember	-12.0111
307	-12.0113
Sugar	-12.0116
874	-12.0118
eeg	-12.0126
773	-12.0127
525	-12.0127
msgs	-12.0127
Learning	-12.0128
struts	-12.0129
Large	-12.0129
kitchen	-12.013
Slot	-12.013
lst	-12.0131
GO	-12.0135
Skin	-12.0136
Redist	-12.0139
iteration	-12.0142
yard	-12.0143
loud	-12.0145
Predicate	-12.0145
conditional	-12.0146
noop	-12.0148
Games	-12.0154
Plain	-12.0156
smoothness	-12.0156
Directive	-12.0157
modified	-12.0157
legend	-12.0159
alignment	-12.0161
973	-12.0162
TL	-12.0164
ffe	-12.0164
filetypes	-12.0167
crawl	-12.0169
432	-12.017
713	-12.0172
figures	-12.0173
031	-12.0174
scrolling	-12.0175
aut	-12.0176
Dialogs	-12.0185
shoulda	-12.0186
SUUpdate	-12.0186
Aspect	-12.0187
567	-12.0187
recent	-12.0191
crates	-12.0193
Fonts	-12.0194
assoc	-12.0198
students	-12.0198
041.	-12.0199
connections	-12.0202
Act	-12.0202
GP	-12.0206
176	-12.021
cog	-12.021
english	-12.0211
Shortcut	-12.0211
Delay	-12.0212
primary	-12.0212
Unary	-12.0213
TI	-12.0215
hmm	-12.0216
▁Sc	-12.0217
Toolbox	-12.0218
utile	-12.0218
saa	-12.0218
039.	-12.0223
▁Audio	-12.0225
rng	-12.0226
793	-12.0227
fan	-12.0227
mut	-12.0236
Difference	-12.0236
Cipher	-12.0238
justify	-12.0239
aly	-12.0244
Fu	-12.0245
will	-12.0249
277	-12.0251
wing	-12.0251
mute	-12.0254
▁Console	-12.0255
CV	-12.0257
bac	-12.0258
textfield	-12.026
xpn	-12.026
/2020-	-12.0262
Flag	-12.0263
While	-12.0265
spoofax	-12.0266
related	-12.0266
8859	-12.0268
2017-03	-12.0268
Sia	-12.0269
kill	-12.027
Pixel	-12.0273
PACE	-12.0276
300.	-12.0278
▁Build	-12.0278
bbc	-12.0279
inair	-12.0283
span	-12.0292
038.	-12.0292
esig	-12.0292
▁AngleSharp	-12.0293
]	-12.0293
[	-12.0294
Spawn	-12.0294
programming	-12.0294
__33__	-12.0294
limits	-12.0294
trusted	-12.0298
539	-12.0299
WG	-12.0305
CSV	-12.0306
165	-12.0308
Repo	-12.0309
HO	-12.0314
quota	-12.0315
arity	-12.0316
Pj	-12.0318
btree	-12.0319
Employee	-12.0321
626	-12.0321
blacklist	-12.0322
onane	-12.0323
gpr	-12.0328
pagebreak	-12.0332
495	-12.0332
561	-12.0333
iterate	-12.0335
las	-12.0339
exam	-12.0339
packets	-12.0341
926	-12.0341
brain	-12.0343
leak	-12.0344
oul	-12.0346
▁jaxws	-12.0347
opa	-12.0347
042.	-12.0348
Activities	-12.0349
Square	-12.0349
microblaze	-12.0349
nightvision	-12.0349
Cryptographics	-12.0351
945	-12.0351
rail	-12.0351
438	-12.0352
debounce	-12.0352
mul	-12.0354
Pop	-12.0355
seal	-12.0359
857	-12.0362
Reporter	-12.0363
QueryVersion	-12.0363
Projection	-12.0364
ruleset	-12.0369
606	-12.0369
bolt	-12.0373
497	-12.0374
clay	-12.0376
936	-12.0376
divider	-12.0377
multivariate	-12.0377
Hardware	-12.0377
Administration	-12.0377
shield	-12.0377
debugging	-12.0377
concurrency	-12.0378
zuul	-12.0379
bfa	-12.0382
tuner	-12.0388
905	-12.039
837	-12.0395
Market	-12.0402
291	-12.0402
UN	-12.0403
aq	-12.0403
Instrument	-12.0404
visit	-12.0404
drools	-12.0404
genomics	-12.0405
Secure	-12.0405
Week	-12.0405
ImportExport	-12.0406
unpack	-12.0407
Mime	-12.0408
Drawable	-12.0411
buffers	-12.0412
272	-12.0412
paml	-12.0415
zf	-12.0418
ManagerImpl	-12.0418
alsa	-12.0418
Lit	-12.042
772	-12.0423
callbacks	-12.0425
809	-12.0429
Invoke	-12.0429
lightbox	-12.0429
USNV	-12.0433
geometries	-12.0433
vn	-12.0433
addressbook	-12.0436
ObjectMapper	-12.0438
174	-12.0439
zest	-12.0439
GLES	-12.0441
DataAccess	-12.0442
Studio	-12.0443
restful	-12.0445
plg	-12.0452
▁git	-12.0456
385	-12.0459
suggestions	-12.046
Para	-12.046
Arc	-12.046
conference	-12.0461
flatdream	-12.0461
flush	-12.0463
222	-12.0464
764	-12.0465
Weight	-12.0467
201	-12.0467
allocator	-12.0468
lion	-12.0469
TG	-12.0471
669	-12.0472
reporter	-12.0476
period	-12.0477
393	-12.0484
274	-12.0484
Crypt	-12.0485
foam	-12.0485
winrt	-12.0486
Gradient	-12.0489
Compressonator	-12.0489
Gamma	-12.0489
After	-12.0489
james	-12.0489
librtmp	-12.0491
running	-12.0492
unified	-12.0493
330	-12.0498
960	-12.0499
tokenize	-12.05
cond	-12.0504
timezone	-12.0507
ivo	-12.0509
/9.4.0/	-12.0517
Evaluation	-12.0517
pcmcia	-12.0517
irssi	-12.0517
Bulk	-12.0517
payroll	-12.0518
OO	-12.0519
267	-12.052
3_1	-12.0521
colorpicker	-12.0521
NOTES	-12.0522
shallow	-12.0522
545	-12.0524
ale	-12.0525
282	-12.0525
Drive	-12.0525
mmp	-12.0525
oj	-12.053
bem	-12.0531
flight	-12.0533
sqf	-12.0536
repair	-12.0536
prototypes	-12.0544
ism	-12.0544
school	-12.0546
118.	-12.0546
355	-12.0549
Unicode	-12.0552
349	-12.0552
▁ph	-12.0553
uff	-12.0553
▁zsh	-12.0555
486	-12.0555
nal	-12.056
offers	-12.0563
pbridge	-12.0565
tea	-12.0567
psutil	-12.0567
geode	-12.0573
soon	-12.0573
SPIRV	-12.0574
565	-12.0574
album	-12.0574
deferred	-12.0575
UW	-12.0578
installers	-12.0581
pairs	-12.0581
vmap	-12.0581
609	-12.0583
Without	-12.0583
Lifecycle	-12.0588
IV	-12.0592
▁benchmarks	-12.0592
homedir	-12.0594
Io	-12.06
listview	-12.0601
tagged	-12.0603
Deki	-12.0604
Par	-12.0605
853	-12.0606
▁AV	-12.0606
Heap	-12.0607
▁mrp	-12.0608
Mu	-12.0609
DR	-12.0612
reactstrap	-12.0612
TAA	-12.0612
Insights	-12.0612
phpmailer	-12.0613
tum	-12.0616
Keyword	-12.0616
artist	-12.0618
relation	-12.0619
sysv	-12.062
680	-12.0622
Less	-12.0634
oam	-12.0636
analyze	-12.0636
907	-12.0637
fine	-12.0638
719	-12.0639
▁texi	-12.0643
439	-12.0647
drawing	-12.0648
jmx	-12.0652
524	-12.0653
SR	-12.0653
tek	-12.0657
628	-12.0659
discipline	-12.066
aca	-12.066
234	-12.066
showcase	-12.0664
vmk	-12.0665
830	-12.0666
74726	-12.0668
10300/	-12.0673
Exporter	-12.0679
CB	-12.0681
LM	-12.0681
fakes	-12.0681
structs	-12.0683
trust	-12.0688
icybits	-12.0688
Kyle	-12.0689
previous	-12.0691
editable	-12.0691
741	-12.0696
Apply	-12.0697
RPC	-12.0698
173	-12.07
crafter	-12.0701
msi	-12.0704
302	-12.0706
Pager	-12.0709
Leetcode	-12.0717
supplier	-12.0717
348	-12.0718
choice	-12.0718
EEA	-12.0719
459	-12.0722
meetings	-12.0725
Normalizer	-12.0727
figure	-12.0728
761	-12.073
More	-12.0732
spree	-12.0735
updater	-12.0737
deque	-12.0739
081	-12.0742
Exams	-12.0743
562	-12.0743
mixer	-12.0749
mathjax	-12.0753
void	-12.0754
7/51	-12.0757
SH	-12.0759
414	-12.0761
775	-12.0762
pire	-12.0762
Buttons	-12.0763
0.01/	-12.0768
3.4/	-12.0768
dap	-12.0769
465	-12.077
responder	-12.0771
graphs	-12.0774
COPYING	-12.0775
Droid	-12.0775
Banner	-12.0775
528	-12.0777
zcl	-12.0782
312	-12.0785
basement	-12.0785
246	-12.0786
-2.6.3	-12.0786
namespaces	-12.0786
KE	-12.0787
Scenario	-12.0789
195	-12.0794
LG	-12.0796
529	-12.0801
Deco	-12.0801
ments	-12.0802
fox	-12.0802
Supporting	-12.0804
Transliteration	-12.0804
caching	-12.0804
Plane	-12.0806
-3.2.14/	-12.0806
HI	-12.0807
ull	-12.0807
LOG	-12.0809
sdq	-12.081
433	-12.0811
itu	-12.0818
applet	-12.0833
Navigator	-12.0833
innobase	-12.0834
pics	-12.0836
pulse	-12.0836
jvmci	-12.0839
testdir	-12.0841
pj	-12.0841
024	-12.0841
kqf	-12.0843
basis	-12.0847
▁expt	-12.0848
Station	-12.0849
Im	-12.0851
una	-12.0854
predict	-12.0854
jack	-12.0855
836	-12.0855
nz	-12.0859
Messaging	-12.0863
webui	-12.0871
brown	-12.0871
Credential	-12.0871
254	-12.0875
▁Master	-12.0877
WargameEngine	-12.0883
leaf	-12.089
buddy	-12.0892
VirtualMachine	-12.0892
NN	-12.0892
failure	-12.0893
unknown	-12.0893
EA	-12.0893
cypress	-12.0894
Gamev	-12.0894
Fun	-12.0895
Conf	-12.0897
▁pi	-12.0902
tabbar	-12.0902
Etc	-12.0905
gps	-12.0911
072	-12.0911
emul	-12.0914
_100_	-12.0914
834	-12.0915
665	-12.0916
Tier	-12.0918
tetrad	-12.0921
Xamarin	-12.0921
executable	-12.0921
-0.6.4/	-12.0922
Mutate	-12.0922
negative	-12.0922
presto	-12.0923
GMSCore	-12.0924
bag	-12.0924
▁deeplearning	-12.0925
invite	-12.0926
oro	-12.0929
514	-12.0931
▁reports	-12.0932
Bag	-12.0932
archetype	-12.0934
▁rice	-12.0942
309	-12.0944
payments	-12.0945
lead	-12.0946
997	-12.0947
502	-12.095
ileTypeSigModule	-12.0951
/8.5.3/	-12.0951
Bucket	-12.0951
inside	-12.0952
346	-12.0952
Nested	-12.0953
MCQ	-12.0955
Invoker	-12.0955
scape	-12.0956
evo	-12.0962
▁control	-12.0965
LR	-12.0966
Devices	-12.0968
qgs	-12.0969
sav	-12.0969
763	-12.0969
scrollbar	-12.0969
iscsi	-12.0971
-0.4	-12.0974
bel	-12.0976
703	-12.0977
berg	-12.0977
066	-12.0977
hir	-12.0978
026	-12.0983
then	-12.099
found	-12.0994
039	-12.0999
260	-12.1002
Containers	-12.1005
fails	-12.1008
Changes	-12.101
207	-12.101
jpl	-12.101
mobi	-12.101
Related	-12.101
/91/91	-12.1013
vu	-12.1017
pur	-12.102
Semantic	-12.1021
8+	-12.1021
Checkbox	-12.1024
984	-12.1029
197	-12.1033
990	-12.1035
bell	-12.1037
efi	-12.1037
796	-12.104
persian	-12.104
ArcGISRuntime	-12.104
Sphere	-12.104
089	-12.1041
coco	-12.1043
gmk	-12.1043
Soap	-12.1043
585	-12.1045
revision	-12.1046
runfor	-12.1046
szk	-12.1048
polylang	-12.1054
374	-12.1057
885	-12.1058
478	-12.1058
icl	-12.1062
▁extension	-12.1064
formatters	-12.1065
555	-12.1067
puzzle	-12.107
Floor	-12.107
043.	-12.1071
Life	-12.1071
017	-12.1072
existing	-12.1073
abe	-12.1074
tsk	-12.1077
FOS	-12.1081
SwaggerClient	-12.1084
906	-12.1085
287	-12.1088
156	-12.1094
solo	-12.1097
conversation	-12.11
exponential	-12.11
Sphinx	-12.11
batfish	-12.1101
usecase	-12.1101
787	-12.1102
autotools	-12.1102
competition	-12.1104
cisco	-12.1105
zd	-12.1105
395	-12.1107
467	-12.1109
pnp	-12.111
329	-12.111
▁documents	-12.1111
BV	-12.1111
762	-12.1111
Instruction	-12.1113
cocoa	-12.1116
468	-12.1118
334	-12.1119
328	-12.112
Products	-12.112
577	-12.1123
▁document	-12.1125
momentjs	-12.1128
Sym	-12.1128
Authenticator	-12.113
Shift	-12.113
twenty	-12.113
jsmiparser	-12.113
compatibility	-12.113
aka	-12.113
Steps	-12.113
shipping	-12.113
moon	-12.1131
digital	-12.1131
pjproject	-12.1132
VN	-12.1133
seven	-12.1134
mvp	-12.1137
roboto	-12.1138
gradients	-12.1143
236	-12.1143
2_0.	-12.1144
irda	-12.1146
discover	-12.1146
▁vim	-12.1147
Serv	-12.1153
498	-12.1156
ApiBundle	-12.1157
atoms	-12.1157
lpc	-12.1159
Align	-12.116
laroline	-12.116
cfgrecovery	-12.116
gap	-12.1161
AutoMapper	-12.1163
331	-12.1169
holy	-12.117
709	-12.1173
▁rpc	-12.1174
edac	-12.1176
1100	-12.1177
572	-12.1179
webrisk	-12.118
Fetch	-12.1181
Cost	-12.1181
257	-12.1183
211	-12.1185
oov	-12.1185
774	-12.1186
Telerik	-12.119
keepsake	-12.119
Har	-12.119
collada	-12.1191
lease	-12.1192
Debugger	-12.1193
Practice	-12.1195
523	-12.1196
lom	-12.1196
lassJava	-12.1196
offer	-12.1203
688	-12.1206
875	-12.1208
484	-12.1208
mohw	-12.1212
532	-12.1218
tern	-12.122
werkzeug	-12.122
firewall	-12.1221
ND	-12.1221
transitions	-12.1222
umb	-12.1222
anno	-12.1224
011	-12.1226
366	-12.1228
Benchmarks	-12.1229
cbc	-12.1229
wid	-12.1232
oper	-12.1234
677	-12.1235
742	-12.1237
dbo	-12.1238
prom	-12.124
Credit	-12.1241
261	-12.1242
look	-12.1243
▁skin	-12.1245
igv	-12.125
bunker	-12.125
素	-12.125
persist	-12.1251
aggregates	-12.1251
Energy	-12.1251
LICENCE	-12.1251
cue	-12.1251
Direction	-12.1251
PEAR	-12.1252
Worksheet	-12.1252
rogue	-12.1252
522	-12.1254
mist	-12.1255
InMemory	-12.1256
sealed	-12.1256
Ring	-12.1257
ramda	-12.1258
checked	-12.1259
Trust	-12.1261
adodb	-12.1261
measure	-12.1261
604	-12.1263
---2015-	-12.1264
Desc	-12.1264
716	-12.1265
srx	-12.1266
574	-12.1267
Initial	-12.1272
apim	-12.1272
jsbn	-12.1273
-30-	-12.1274
-24-	-12.1276
spine	-12.1276
bots	-12.1277
etag	-12.1279
intervention	-12.1281
bcmdhd	-12.1281
AlamofireImage	-12.1283
discount	-12.1283
rocket	-12.1284
hil	-12.1284
▁ete	-12.1285
Clip	-12.1286
amba	-12.1286
Arg	-12.1286
583	-12.1287
652	-12.1287
2000	-12.129
pol	-12.1296
342	-12.1296
groupon	-12.1297
designs	-12.1298
208	-12.13
ask	-12.1302
AWS	-12.1303
271	-12.1306
processes	-12.1306
haus	-12.1307
introc	-12.1308
▁centreon	-12.1308
winpr	-12.1311
turing	-12.1311
SY	-12.1311
▁james	-12.1311
Triangle	-12.1312
esprima	-12.1313
quant	-12.1313
plotting	-12.1314
ease	-12.1315
systemd	-12.1318
Reset	-12.1318
835	-12.1318
mont	-12.1321
594	-12.1325
Heat	-12.1326
pako	-12.1326
installing	-12.1329
7469	-12.1329
046.	-12.133
Walk	-12.1333
WebPage	-12.1334
Preference	-12.1334
eller	-12.1337
erlang	-12.1338
javascriptcore	-12.1339
Each	-12.134
Building	-12.1341
TestSuite	-12.1341
Mountain	-12.1342
-2.4.	-12.1342
stretch	-12.1343
956	-12.1347
959	-12.1348
opti	-12.1351
appearances	-12.1351
checksum	-12.1352
601	-12.1354
Primitive	-12.1355
Webpage	-12.1359
recorder	-12.1359
Compile	-12.1361
776	-12.1361
694	-12.1364
045.	-12.1369
Locator	-12.1371
材	-12.1373
Duration	-12.1373
thermophysical	-12.1373
scaling	-12.1374
particle	-12.1374
StyleSheet	-12.1374
847	-12.1376
buildbot	-12.1377
tizen	-12.1377
ye	-12.1378
Maker	-12.1379
398	-12.1379
materialsystem	-12.1382
mill	-12.1382
Resolution	-12.1385
dff	-12.1385
predicates	-12.1387
▁hadoop	-12.1388
metro	-12.1388
UP	-12.1391
939	-12.1395
dql	-12.1395
343	-12.1396
Roll	-12.1402
968	-12.1402
Hit	-12.1403
▁2014081	-12.1403
dpi	-12.1404
Comparison	-12.1404
pricing	-12.1404
broken	-12.1404
landscape	-12.1405
ognitiveServices	-12.1406
▁Docs	-12.1407
hlsl	-12.1407
Installation	-12.1408
016	-12.141
acpica	-12.141
skills	-12.141
known	-12.1412
Iron	-12.1413
slideshow	-12.1413
▁Python	-12.1413
lstm	-12.1415
law	-12.1417
233	-12.1417
PY	-12.1418
tune	-12.1422
627	-12.1424
paned	-12.1427
Required	-12.1427
wsc	-12.1427
994	-12.1428
pageactions	-12.1429
▁tasks	-12.1432
GG	-12.1433
paladin	-12.1435
FreeRTOS	-12.1435
323	-12.1436
Like	-12.1436
imageio	-12.1439
576	-12.1444
catalogue	-12.1445
acao	-12.1446
compressor	-12.1454
505	-12.1455
oom	-12.1455
394	-12.1455
▁quick	-12.1457
-1.0.0	-12.146
livestream	-12.1465
redeyed	-12.1466
Migrate	-12.1466
configurate	-12.1466
utella	-12.1467
transpose	-12.1467
BOY	-12.1467
rollup	-12.1468
Total	-12.1468
-0.5	-12.1469
uno	-12.147
Food	-12.1472
377	-12.1472
cep	-12.1474
webroot	-12.1476
Div	-12.1477
Sorting	-12.1478
RST	-12.1479
kris	-12.1482
659	-12.1485
143	-12.1486
978	-12.1487
mquery	-12.149
Cal	-12.149
276	-12.1491
ABI	-12.1494
Communication	-12.1497
Partition	-12.1497
talismane	-12.1497
8.6.0.	-12.1497
Embed	-12.1498
mqtt	-12.1498
1.2.2-	-12.1499
classof	-12.1504
Wait	-12.1504
phpfastcache	-12.151
▁HW	-12.1514
516	-12.1515
strap	-12.1517
kmx	-12.1518
glu	-12.152
Jeti	-12.1521
rapidjson	-12.1522
rho	-12.1525
Mysql	-12.1525
aff	-12.1525
abel	-12.1526
Flex	-12.1526
Accept	-12.1527
833	-12.1527
Goog	-12.1528
Proposal	-12.1529
{	-12.1529
Failure	-12.1529
__41__	-12.1529
biz	-12.153
239	-12.1532
multipart	-12.1532
matching	-12.1533
emf	-12.1533
lw	-12.1535
513	-12.1537
days	-12.1538
timeseries	-12.1539
Props	-12.1545
onsi	-12.1547
954	-12.1549
388	-12.1553
sliced	-12.1555
elliptic	-12.156
615	-12.156
Require	-12.1561
AU	-12.1563
rtlwifi	-12.1563
ctp	-12.1566
Sun	-12.1567
Experiment	-12.1574
-9999	-12.1575
Owner	-12.1576
520	-12.1578
CollectionView	-12.1579
251	-12.1582
mako	-12.1583
629	-12.1583
lily	-12.1583
445	-12.1584
353	-12.1586
why	-12.1588
161	-12.1589
frv	-12.1591
configurator	-12.1591
Assembler	-12.1591
Foreign	-12.1591
▁xbmc	-12.1591
WoundManagement	-12.1591
autoscaling	-12.1593
fortran	-12.1594
pcap	-12.1596
654	-12.1596
San	-12.1596
AdGroup	-12.1598
northrend	-12.1599
319	-12.1601
Routes	-12.1602
creature	-12.1608
341	-12.1608
Flags	-12.1608
diagnostics	-12.1612
Scalar	-12.1615
done	-12.1617
▁Reporting	-12.1617
VBox	-12.162
Between	-12.1623
temporary	-12.1623
sauce	-12.1624
digest	-12.1624
pencil	-12.1624
expense	-12.1627
rian	-12.1631
482	-12.1636
751	-12.1636
choose	-12.1636
Changed	-12.1638
rxj	-12.1639
424	-12.1651
933	-12.1651
▁lab	-12.1653
leopard	-12.1654
Aggregation	-12.1655
phonegap	-12.1655
IG	-12.1658
_10_2	-12.1659
tut	-12.1666
say	-12.1673
early	-12.1677
depd	-12.1682
leakcanary	-12.1686
pentaho	-12.1686
rientechnologies	-12.1686
633	-12.1687
GLSLES	-12.1687
Lime	-12.1689
wrt	-12.1689
pq	-12.1689
just	-12.1691
Good	-12.1694
liststyle	-12.1694
kin	-12.1695
Sil	-12.1695
790	-12.1705
▁clients	-12.1706
dmi	-12.1709
687	-12.171
recovery	-12.1711
489	-12.1713
gettext	-12.1715
gotk	-12.1715
jpeglib	-12.1716
Joint	-12.1718
silverpeas	-12.1718
cobol	-12.1719
tao	-12.1719
polybench	-12.172
DSC	-12.1722
Tiles	-12.1725
Unet	-12.1728
347	-12.173
877	-12.1731
chars	-12.1732
vpn	-12.1732
044.	-12.1732
dag	-12.1733
ead	-12.1735
shortcut	-12.1736
triple	-12.1736
/7.8/	-12.1736
weapon	-12.174
indexOf	-12.1741
lag	-12.1742
169	-12.1742
develop	-12.1743
345	-12.1743
hackers	-12.1744
Cancel	-12.1749
358	-12.175
SVProgressHUD	-12.175
▁bayesian	-12.175
Flash	-12.175
objective	-12.175
phar	-12.1751
/1.1.9/	-12.1751
Arch	-12.1752
yade	-12.1752
ski	-12.1752
Portfolio	-12.1752
inmemory	-12.1753
assignments	-12.1754
ycssmin	-12.1755
orientation	-12.1755
others	-12.1756
unary	-12.1757
457	-12.1758
EDM	-12.176
paragraph	-12.1762
testimonials	-12.1762
hta	-12.1766
rrito	-12.1767
Price	-12.1768
237	-12.1769
▁ribbon	-12.1774
903	-12.1775
399	-12.1775
mirror	-12.1778
Finish	-12.1782
shadowlands	-12.1782
gremlin	-12.1782
Caching	-12.1782
医家	-12.1782
/1.9.0/	-12.1782
Bravura	-12.1782
accelerometer	-12.1782
TAILS	-12.1782
lexical	-12.1782
protection	-12.1782
locations	-12.1785
634	-12.1785
▁Pod	-12.1787
enter	-12.1787
kw	-12.1791
ptoa	-12.1792
564	-12.1792
608	-12.1793
▁Images	-12.1796
fasta	-12.1797
▁appliance	-12.1797
42756	-12.1797
▁gas	-12.1798
knative	-12.1798
Prefs	-12.1798
wsgi	-12.1799
▁renderer	-12.18
ossim	-12.1801
492	-12.1802
recast	-12.1803
Img	-12.1804
cider	-12.1806
Definitions	-12.1811
kms	-12.1812
AngryBotsTests	-12.1814
Currency	-12.1814
scratch	-12.1814
Human	-12.1816
pjsip	-12.1817
ecosystem	-12.1818
563	-12.1819
ReferenceImages	-12.182
odoo	-12.1821
Ni	-12.1824
GMT	-12.1824
eas	-12.1824
fruit	-12.1825
geojson	-12.1828
588	-12.183
ckj	-12.1831
aframe	-12.1834
chess	-12.1834
does	-12.1836
HttpClient	-12.1838
rows	-12.1842
Pad	-12.1844
4_16_	-12.1846
Zenject	-12.1846
autonomous	-12.1846
nightscout	-12.1847
separate	-12.1847
Bloom	-12.1847
flutype	-12.1847
.4.3.0/	-12.1847
duct	-12.1848
grass	-12.1848
CHARACTERS	-12.1848
EventDispatcher	-12.1849
bgp	-12.1852
Hot	-12.1856
wy	-12.1858
172	-12.1863
▁sphinx	-12.1863
Mob	-12.1865
instances	-12.1865
parsleyjs	-12.1866
Pod	-12.1876
scatter	-12.1878
Skeleton	-12.1878
transformations	-12.1878
gnostic	-12.1879
/1.2.20/	-12.1879
lift	-12.1879
synchronize	-12.1879
Album	-12.1879
procurement	-12.1879
continuous	-12.1879
Lodash	-12.1879
presage	-12.1881
Extender	-12.1881
543	-12.1884
559	-12.1884
ius	-12.1884
Concurrent	-12.1884
158	-12.1885
vertex	-12.1886
Swagger	-12.1891
Streaming	-12.1892
jam	-12.1894
textarea	-12.1896
gist	-12.1898
ebe	-12.1898
805	-12.1899
commerce	-12.1905
▁qa	-12.1906
Vehicles	-12.1907
tory	-12.191
Tensor	-12.1911
stanford	-12.1911
Leipzig	-12.1911
Prototyping	-12.1911
▁catalog	-12.1912
721	-12.1912
Emitter	-12.1912
indexeddb	-12.1912
cxgb	-12.1912
-2.5.0/	-12.1912
prj	-12.1914
eva	-12.1915
WA	-12.1916
743	-12.1916
ication	-12.1916
csrf	-12.1918
363	-12.192
activate	-12.192
height	-12.1922
WebCoreSupport	-12.1923
gro	-12.1923
hill	-12.1924
fade	-12.1925
maj	-12.1932
pune	-12.1934
deck	-12.1937
GPU	-12.1938
itania	-12.1938
157	-12.1938
dial	-12.1941
dfa	-12.1944
Replication	-12.1944
ASP	-12.1945
downgrade	-12.1945
independent	-12.1945
adobe	-12.1946
Rec	-12.1948
trend	-12.1954
985	-12.1955
607	-12.196
593	-12.196
predicate	-12.1963
▁compose	-12.1965
049.	-12.1968
pix	-12.1975
Should	-12.1977
cryptonite	-12.1977
Flass	-12.1977
thermal	-12.1977
viewport	-12.1979
337	-12.1982
DataSet	-12.1982
etl	-12.1983
vgui	-12.1983
/8.10.0	-12.1984
unstable	-12.1984
Enable	-12.1991
epub	-12.1991
644	-12.1992
Const	-12.1994
redirects	-12.1995
166	-12.2002
xds	-12.2005
googlecode	-12.2006
047.	-12.2006
988	-12.2007
Tele	-12.2007
bcrypt	-12.2007
great	-12.2009
InjectedBundle	-12.2009
Bubble	-12.2009
circular	-12.2009
gbc	-12.2011
475	-12.2012
XP	-12.2012
hoot	-12.2017
344	-12.2019
warlock	-12.2023
stunnel	-12.2023
duck	-12.2023
love	-12.2024
challenge	-12.2029
hair	-12.203
DataCollector	-12.203
662	-12.2031
MyMap	-12.2031
ndf	-12.2033
avi	-12.2035
csp	-12.2036
425	-12.2037
074	-12.204
addition	-12.204
Chinese	-12.2042
/8.9.0.	-12.2042
-1.6.4.1/	-12.2042
Offline	-12.2043
emulation	-12.2044
consol	-12.2047
Str	-12.2048
807	-12.2048
notice	-12.2052
Mass	-12.2055
clusters	-12.2055
921	-12.2056
VO	-12.2056
Own	-12.2057
▁tla	-12.2057
deriv	-12.2058
lix	-12.2062
dumper	-12.2069
Os	-12.207
dual	-12.2071
493	-12.2072
Patient	-12.2075
Challenge	-12.2075
dialect	-12.2075
librustc	-12.2076
BI	-12.2079
Languages	-12.2082
mailcomposer	-12.2083
Publisher	-12.2085
Lessons	-12.2087
psr	-12.2088
glade	-12.2088
opensha	-12.2093
888	-12.2095
639	-12.2099
eria	-12.2102
blast	-12.2108
diagonal	-12.2108
nuxeo	-12.2108
principal	-12.2108
capybara	-12.2108
temperature	-12.2108
walkers	-12.2109
proguard	-12.211
saber	-12.2111
▁hints	-12.2114
640	-12.2114
ZOS	-12.2115
androidap	-12.2116
/1.8.1/	-12.2116
UIComponent	-12.2116
Graphic	-12.2117
pat	-12.2117
fileupload	-12.2118
375	-12.2119
lexers	-12.2119
Solr	-12.2121
DataFlow	-12.2123
637	-12.2124
prep	-12.2124
CommandTest	-12.2125
045	-12.2127
submission	-12.2129
playbooks	-12.213
431	-12.2131
anon	-12.2132
mdss	-12.2136
faces	-12.2138
1_8_	-12.2141
ardublock	-12.2142
flavours	-12.2142
Override	-12.2142
average	-12.2142
/8.7.0	-12.2142
mlx	-12.2142
-5.08/	-12.2142
xz	-12.2142
Verify	-12.2142
Scheme	-12.2143
popper	-12.2144
527	-12.2144
▁protected	-12.2149
Sink	-12.215
aliases	-12.2151
osmanagement	-12.2151
Town	-12.2153
Rename	-12.2157
reply	-12.2159
mission	-12.2159
934	-12.216
puppi	-12.2162
fef	-12.2164
ClientTest	-12.2172
autobahn	-12.2175
Maintenance	-12.2175
Corner	-12.2175
TableViewCell	-12.2176
3.1.1-	-12.2176
Escape	-12.2176
sai	-12.2178
nyc	-12.2178
Reduce	-12.2179
nconf	-12.2181
attachments	-12.2185
Eq	-12.2189
856	-12.2193
▁phpfastcache	-12.2195
625	-12.2196
597	-12.2197
▁cyber	-12.2199
/14049	-12.2205
ontouml	-12.2208
417	-12.2208
liquibase	-12.2208
snowleopard	-12.2208
Raster	-12.2209
MsgPack	-12.2209
Ban	-12.2211
dead	-12.2212
podd	-12.2213
hurla	-12.2214
hprof	-12.2221
Replay	-12.2223
937	-12.2226
Offer	-12.2226
portlib	-12.2227
▁cake	-12.2229
Span	-12.2233
Ast	-12.2235
calls	-12.2236
Tour	-12.2238
717	-12.2242
openhealthtools	-12.2242
Friend	-12.2242
teacher	-12.2243
EventArgs	-12.2243
Submit	-12.2243
riak	-12.2246
-0.19/	-12.2247
mdht	-12.2248
306	-12.2249
kab	-12.2251
pbtxt	-12.2251
932	-12.2253
470	-12.2254
304	-12.2256
859	-12.2257
788	-12.2258
Syn	-12.2259
sortable	-12.2259
leader	-12.2261
releases	-12.2261
amdefine	-12.2263
RuntimeException	-12.2265
827	-12.2268
mpu	-12.2268
epp	-12.227
542	-12.2271
389	-12.2271
Orchard	-12.2272
blur	-12.2272
interp	-12.2272
Compound	-12.2275
Sistema	-12.2276
Before	-12.2276
Destination	-12.2276
Cocoa	-12.2276
culture	-12.2276
999	-12.2276
quests	-12.2282
tone	-12.2282
Rating	-12.2286
materialize	-12.2287
syslog	-12.2288
Cam	-12.2291
235	-12.2292
Opt	-12.2296
iface	-12.23
Hosting	-12.2301
Filesystem	-12.2301
TestCases	-12.2306
Expand	-12.2308
MCastor	-12.2309
FontAwesome	-12.231
BlueMuse	-12.231
491	-12.231
GitLab	-12.231
stor	-12.2311
truncate	-12.2315
013	-12.2316
aroopp	-12.2316
begin	-12.2316
fmpz	-12.2318
LK	-12.2318
grub	-12.2323
ConfigSchema	-12.2324
IDs	-12.2326
arry	-12.233
690	-12.233
701	-12.2332
querystring	-12.2332
369	-12.2333
smooth	-12.2334
965	-12.2335
GT	-12.2335
521	-12.2338
Door	-12.2338
vlc	-12.2338
interest	-12.2338
499	-12.2341
pkginfo	-12.2341
island	-12.2342
mastodon	-12.2343
Facilities	-12.2343
cohort	-12.2343
858	-12.2343
372	-12.2345
tickets	-12.2345
biomes	-12.2346
leave	-12.2348
869	-12.2349
webrtc	-12.2351
oscar	-12.2354
bzr	-12.2354
-3.10	-12.2354
995	-12.2355
47616	-12.2361
earth	-12.2361
789	-12.2365
Structures	-12.2365
228	-12.2366
AE	-12.2367
Launch	-12.2371
▁priv	-12.2372
844	-12.2377
circuit	-12.2377
Simulator	-12.2377
sponge	-12.2377
comparator	-12.2377
Company	-12.2378
ckfinder	-12.2378
Tokenizer	-12.2379
raster	-12.2382
confirmation	-12.2383
nupkg	-12.2383
itk	-12.2383
▁routes	-12.2385
BT	-12.2392
о	-12.2393
Transformation	-12.2394
048.	-12.2395
ario	-12.2395
0700.	-12.2396
radar	-12.2396
semantics	-12.2396
▁tei	-12.2396
▁filters	-12.2407
owner	-12.2407
signed	-12.2408
983	-12.2408
Specific	-12.2408
896	-12.2409
▁MediaBrowser	-12.2411
subdir	-12.2412
Unknown	-12.2412
Graphs	-12.2413
Meter	-12.2414
Equals	-12.2414
890	-12.2414
777	-12.242
plex	-12.2422
phon	-12.2427
ubic	-12.2433
_4_0	-12.2434
ulation	-12.2435
Particles	-12.2439
638	-12.2441
ubi	-12.2441
captcha	-12.2443
east	-12.2445
163	-12.2445
entralSystem	-12.2445
INSTALL	-12.2446
Sabre	-12.2446
capabilities	-12.2447
ili	-12.2449
construction	-12.2449
Throw	-12.2451
▁AI	-12.2454
teams	-12.2454
cors	-12.2454
scheduled	-12.2457
Optional	-12.246
Elastic	-12.2462
338	-12.2466
Jobs	-12.2466
Factor	-12.2468
3.1.0-	-12.2472
Artifacts	-12.2473
387	-12.2474
Extras	-12.2475
mult	-12.2475
activiti	-12.2476
xss	-12.2476
servicebuilder	-12.2478
Extract	-12.2479
Telemetry	-12.2479
caGWAS	-12.248
Fluent	-12.248
8300/	-12.248
smartystreets	-12.248
typeahead	-12.248
families	-12.248
mzmine	-12.248
fontys	-12.248
1.1/	-12.2482
Alt	-12.2482
tooling	-12.2483
director	-12.2489
thor	-12.2489
elementtree	-12.2493
685	-12.2494
fancy	-12.2496
VI	-12.2507
▁iphone	-12.2508
inactive	-12.2508
toArray	-12.2509
charge	-12.251
pkgs	-12.2511
20150328-091302/	-12.2515
confluence	-12.2515
20150301-090019/	-12.2515
Easy	-12.2515
duye	-12.2515
Swipe	-12.2516
CZ	-12.2516
Serialize	-12.2519
kth	-12.252
toolchain	-12.2521
-3.0/	-12.2523
Summ	-12.2527
uninstall	-12.2528
newline	-12.2529
pending	-12.2531
mediaelement	-12.2534
Exit	-12.2534
RI	-12.2536
fuel	-12.2538
443	-12.2538
zer	-12.2538
XPath	-12.2539
mitk	-12.2539
bld	-12.2545
jmagz	-12.2549
Medieval	-12.2549
pretix	-12.2549
exhibitions	-12.2549
telegram	-12.255
Alignment	-12.255
uva	-12.255
assembler	-12.2551
omni	-12.2558
855	-12.256
bright	-12.256
ccmc	-12.2561
realtime	-12.2565
robe	-12.257
Filtering	-12.257
961	-12.2572
Stat	-12.2573
670	-12.2578
SOURCE	-12.2579
schedulers	-12.258
blk	-12.258
matt	-12.2582
stpl	-12.2583
except	-12.2583
Every	-12.2584
abf	-12.2584
restaurant	-12.2584
Enhanced	-12.2584
CANBootloader	-12.2584
-1909	-12.2585
alfresco	-12.2585
Accessible	-12.2585
bpmn	-12.2585
plugman	-12.2586
sota	-12.2587
rect	-12.2587
DesignEditor	-12.2588
Dash	-12.2589
hoc	-12.2589
RESTController	-12.259
bol	-12.2591
PythonInterface	-12.2591
396	-12.2591
oxide	-12.2592
spaces	-12.2592
368	-12.2595
953	-12.2596
fbm	-12.2598
_04_	-12.26
representation	-12.2601
owncloud	-12.2601
buck	-12.2605
481	-12.261
statuses	-12.2613
gam	-12.2616
920	-12.2617
mojave	-12.2619
Participant	-12.2619
dictionaries	-12.2619
hdr	-12.2619
mailchimp	-12.2619
▁Customizing	-12.2619
gesture	-12.2619
▁peer	-12.262
Distance	-12.262
SPA	-12.2626
concepts	-12.2626
ipa	-12.2626
507	-12.2627
Deserializer	-12.2628
044	-12.2628
ndjson	-12.2629
functor	-12.263
667	-12.2631
826	-12.2634
458	-12.2634
Pub	-12.2635
ServiceClient	-12.2635
ServiceStub	-12.2638
880	-12.264
placement	-12.2641
lrg	-12.2642
moo	-12.2643
553	-12.2644
fiddles	-12.2645
fhir	-12.2645
GCC	-12.2647
891	-12.265
spider	-12.2651
ente	-12.2652
Measure	-12.2652
tbr	-12.2654
Width	-12.2654
Queries	-12.2654
Lecture	-12.2654
isis	-12.2655
findbugs	-12.2656
zircon	-12.2656
lighthouse	-12.2657
niochar	-12.2657
MockObject	-12.2657
stella	-12.2658
chroma	-12.2658
991	-12.2662
emi	-12.2663
Decl	-12.2667
ography	-12.2668
AzureRM	-12.2668
902	-12.2669
defer	-12.267
redent	-12.2671
checklist	-12.2673
ncp	-12.2673
Emu	-12.2675
603	-12.2675
132	-12.2676
acm	-12.2677
mssql	-12.2677
tsl	-12.2679
uicolor	-12.268
▁atlas	-12.2681
▁Br	-12.2681
gma	-12.2682
bond	-12.2685
machines	-12.2686
Sig	-12.2688
196	-12.2688
bars	-12.2688
tru	-12.2688
popsicle	-12.2689
interpolation	-12.2689
Mixture	-12.2689
а	-12.2689
ParticleSystems	-12.2689
Skyboxes	-12.2689
inappbrowser	-12.2689
Weak	-12.2689
/1.0.0/	-12.2691
Force	-12.2692
heading	-12.2693
380	-12.2693
▁mba	-12.2694
-1.3.	-12.2695
findIndex	-12.2699
injector	-12.2702
diagrams	-12.2704
Wo	-12.2705
places	-12.2706
TV	-12.2706
movie	-12.2712
records	-12.2714
pgsql	-12.2716
622	-12.2719
suggest	-12.2723
6542756	-12.2723
Legend	-12.2723
Recommender	-12.2724
Palette	-12.2724
recruitment	-12.2724
writing	-12.2724
VinliAuth	-12.2724
paypal	-12.2724
oidc	-12.2725
427	-12.2726
variants	-12.2732
BaseImpl	-12.2733
publication	-12.2733
530	-12.2734
BM	-12.2736
popups	-12.2736
watchpack	-12.2737
seek	-12.2737
FunctionBuilder	-12.2739
171	-12.2739
escodegen	-12.274
Wave	-12.2742
chem	-12.2745
unib	-12.2746
159	-12.275
customers	-12.2753
878	-12.2758
actuate	-12.2759
Gesture	-12.2759
nxdroid	-12.2759
rtf	-12.2761
339	-12.2762
grab	-12.2765
transit	-12.2766
487	-12.2768
DAL	-12.2771
pca	-12.2773
limited	-12.2773
8_1	-12.2775
tablet	-12.2776
aggregated	-12.2777
dockerfile	-12.2777
HC	-12.2779
▁kde	-12.2782
LIB	-12.2784
454	-12.2786
989	-12.2788
spear	-12.2788
259	-12.2788
wk	-12.2793
BGHUD	-12.2795
LinqToDB	-12.2795
}	-12.2795
twentyfourteen	-12.2795
Hudson	-12.2795
openpgp	-12.2795
nim	-12.2795
244	-12.2797
salt	-12.2797
ritd	-12.2797
backward	-12.2799
initClone	-12.28
respond	-12.28
Calc	-12.28
softmax	-12.2801
graf	-12.2801
DataStore	-12.2802
slate	-12.281
filebrowser	-12.2811
livedemo	-12.2813
Off	-12.2816
724	-12.2816
paginator	-12.2819
Hand	-12.282
2130.	-12.2825
exist	-12.2825
249	-12.2828
779	-12.2829
swganh	-12.283
htaccess	-12.2831
Profiles	-12.2831
511	-12.2831
Quota	-12.2831
regress	-12.2831
Cut	-12.2833
localizer	-12.2836
pil	-12.2837
586	-12.2838
trait	-12.284
674	-12.284
241	-12.2842
NFC	-12.2844
hig	-12.2844
TestFirst	-12.2846
723	-12.2848
Dia	-12.285
hze	-12.2852
stdshader	-12.2852
▁foo	-12.2854
727	-12.2856
ptrace	-12.2859
avatars	-12.2859
730	-12.2862
731	-12.2862
ova	-12.2863
361	-12.2864
guice	-12.2866
Favorite	-12.2866
coordinate	-12.2866
different	-12.2866
suo	-12.2866
Appleseed	-12.2866
Rep	-12.2867
instrumentation	-12.2868
curry	-12.2872
chen	-12.2873
smoother	-12.2873
599	-12.2874
-1.3.0	-12.2874
kam	-12.2876
GeneratorTest	-12.2878
domhandler	-12.2886
EntityFramework	-12.2886
904	-12.2887
Tech	-12.2887
$2	-12.2889
into	-12.2889
typedarray	-12.2891
bay	-12.2893
Fl	-12.2895
oke	-12.2895
ident	-12.2895
Dist	-12.29
breadcrumbs	-12.29
ScenarioTests	-12.2901
TestApp	-12.2902
MigAz	-12.2902
conformance	-12.2902
organizer	-12.2902
CodeGenerator	-12.2902
gantt	-12.2903
/0.0.3/	-12.2905
amber	-12.2906
keystone	-12.2907
magneto	-12.2908
Scripting	-12.291
tac	-12.2913
Put	-12.2914
SAX	-12.2915
262	-12.2925
holiday	-12.2927
eee	-12.2927
extglob	-12.2929
vitruvius	-12.2938
Reduction	-12.2938
rudder	-12.2938
memcached	-12.2938
bur	-12.2939
Functor	-12.2939
▁panda	-12.294
gitattributes	-12.2942
downloader	-12.2942
unbound	-12.2943
852	-12.2946
928	-12.2946
051.	-12.2948
gdx	-12.2948
Optimizer	-12.2949
adl	-12.295
Targets	-12.2951
halib	-12.2953
429	-12.2955
spline	-12.2955
ocfs	-12.2956
2708	-12.2957
-0.3.12	-12.2957
976	-12.2961
441	-12.2963
decorator	-12.2963
842	-12.2965
burn	-12.2966
RegExp	-12.2969
Asm	-12.2972
collision	-12.2974
gnatprove	-12.2974
dolfin	-12.2974
▁Week	-12.2974
inflate	-12.2976
HttpFoundation	-12.2976
▁Learning	-12.2978
tilt	-12.2981
592	-12.2982
accounting	-12.2983
658	-12.2985
kerb	-12.2988
perftools	-12.2988
935	-12.2988
corp	-12.2989
490	-12.2993
771	-12.2994
Columns	-12.2995
▁saleor	-12.2997
dae	-12.2998
Systems	-12.2999
who	-12.3009
YouTube	-12.301
Hybrid	-12.301
imaging	-12.301
▁judge	-12.301
participant	-12.3011
Compression	-12.3011
CrossPlatform	-12.3012
jvmti	-12.3013
/3524/	-12.3013
942	-12.3014
lyn	-12.3015
Mine	-12.3016
chr	-12.3024
Psy	-12.3025
hunde	-12.3027
rip	-12.3029
AX	-12.3034
aufs	-12.3034
mojo	-12.3035
▁artemis	-12.3035
appearance	-12.3036
eef	-12.3036
brackets	-12.3038
dimension	-12.3038
xls	-12.304
asic	-12.3041
childrens	-12.3042
bounce	-12.3043
▁PHP	-12.3044
overlays	-12.3044
Paint	-12.3045
subutai	-12.3046
Dimension	-12.3047
clojure	-12.3047
Lambda	-12.3047
Quality	-12.3047
SUITE	-12.3047
/108/108	-12.3047
vat	-12.3047
detective	-12.3048
elia	-12.3053
nose	-12.3057
GetAll	-12.3058
tids	-12.3058
474	-12.3059
786	-12.3061
sunrpc	-12.3061
676	-12.3064
397	-12.3066
Ax	-12.3067
nga	-12.3067
fur	-12.3067
thesis	-12.3068
amos	-12.3071
stringstream	-12.3072
cfc	-12.3075
eater	-12.3077
▁usecase	-12.3077
998	-12.3078
463	-12.3078
Tween	-12.3083
sigmund	-12.3083
chemistry	-12.3083
н	-12.3083
Execute	-12.3083
Visualization	-12.3084
Ob	-12.3086
996	-12.3091
Midi	-12.3093
prime	-12.3095
mars	-12.3096
OA	-12.3096
ittester	-12.3097
958	-12.3097
FunctionalTest	-12.3102
edx	-12.3106
gue	-12.3111
trial	-12.3114
ados	-12.3118
dynamodb	-12.312
zookeeper	-12.312
jvectormap	-12.312
Acceptance	-12.312
templatetags	-12.312
913	-12.3122
tiff	-12.3123
logout	-12.3125
ghc	-12.3128
asg	-12.313
Gear	-12.313
▁tx	-12.3133
164	-12.3138
785	-12.3143
982	-12.3143
lime	-12.3144
Magic	-12.3144
replay	-12.3145
lie	-12.3148
Practices	-12.3148
046	-12.3149
quantize	-12.3149
▁dataact	-12.3152
471	-12.3153
ection	-12.3155
Eclipse	-12.3157
SWGMeta	-12.3157
mass	-12.3157
seedprod	-12.3157
testpack	-12.3159
tenant	-12.3161
Arab	-12.3163
shot	-12.3163
cdc	-12.3163
▁clustering	-12.3166
picking	-12.317
terra	-12.317
wq	-12.3179
Assertion	-12.3181
hud	-12.3181
558	-12.3189
fft	-12.319
deegree	-12.3193
sizzle	-12.3193
BLHeli	-12.3193
ckanext	-12.3193
immutable	-12.3194
superdesk	-12.3194
JDK	-12.3196
Hack	-12.3199
▁bfd	-12.32
455	-12.32
completions	-12.3206
FT	-12.3212
wdt	-12.3212
Cur	-12.3213
EntityTest	-12.3216
snd	-12.322
-3.2.	-12.3221
popover	-12.3222
odd	-12.3223
parents	-12.3224
speakers	-12.3224
226	-12.3227
meeting	-12.3227
XMP	-12.3228
colorbox	-12.3229
Conversation	-12.323
Welcome	-12.323
035	-12.3231
Lines	-12.3232
axe	-12.3233
summer	-12.3233
clamped	-12.3235
678	-12.3235
946	-12.3235
testfw	-12.3235
ult	-12.3236
fbf	-12.3238
Ecommerce	-12.3238
760	-12.3242
associations	-12.3243
415	-12.3243
461	-12.3245
573	-12.3245
gemini	-12.3247
589	-12.3248
ViewHolder	-12.3249
HS	-12.3251
mapped	-12.3252
Primitives	-12.3252
Eval	-12.3258
ghost	-12.3259
Mixins	-12.3259
binlog	-12.3259
ament	-12.3262
mappings	-12.3265
restoration	-12.3268
Bayesian	-12.3268
citadel	-12.3268
painless	-12.3268
Anchor	-12.3268
Answer	-12.3268
incubator	-12.3268
tvdpi	-12.3268
proof	-12.3273
DIH	-12.3273
Tooltip	-12.3273
866	-12.3278
jarvis	-12.3279
idx	-12.3279
838	-12.328
Logan	-12.328
ece	-12.3282
highj	-12.3285
Noise	-12.3286
okak	-12.3288
combiner	-12.3289
bfd	-12.3289
734	-12.329
Scala	-12.3294
Playlist	-12.3295
erp	-12.3296
595	-12.3297
CSharpTest	-12.3297
735	-12.3298
TLS	-12.33
▁cog	-12.3302
Emit	-12.3304
experience	-12.3305
▁sickrage	-12.3305
feather	-12.3305
Naming	-12.3305
BoldItalic	-12.3305
ionicons	-12.3306
odeint	-12.3306
Classification	-12.3306
822	-12.331
nrr	-12.3311
bsh	-12.3312
odid	-12.3318
Tick	-12.332
758	-12.332
Networking	-12.3322
693	-12.3323
TextView	-12.3325
▁dubbo	-12.333
Ping	-12.3336
VAR	-12.3338
/32/1	-12.3339
aug	-12.3342
Poisson	-12.3342
Available	-12.3342
Temporary	-12.3342
Restriction	-12.3342
AdminLTE	-12.3342
creating	-12.3343
bottle	-12.3344
Payload	-12.3344
892	-12.3345
telas	-12.3346
prediction	-12.3349
508	-12.335
graphite	-12.3352
uu	-12.3353
rtp	-12.3354
burg	-12.336
803	-12.3364
cool	-12.3366
Vis	-12.3368
591	-12.337
usergroups	-12.3371
dont	-12.3372
uci	-12.3373
000000000000000	-12.3374
357	-12.3376
Closure	-12.338
evaluator	-12.338
wysiwyg	-12.338
myisam	-12.338
hotplug	-12.338
fleet	-12.338
___40__	-12.3381
grep	-12.3381
adjust	-12.3381
729	-12.3382
894	-12.3384
▁deployment	-12.3384
CW	-12.3385
cvs	-12.3385
customization	-12.3386
stick	-12.3388
BASE	-12.3389
725	-12.3389
theory	-12.3389
635	-12.3393
reason	-12.3394
0004	-12.3397
luci	-12.3408
506	-12.3409
mainboard	-12.341
nid	-12.3412
RGB	-12.3412
Selected	-12.3413
447	-12.3415
oops	-12.3415
Beirut	-12.3418
sensefy	-12.3418
RecurTutor	-12.3418
auction	-12.3418
estimate	-12.3418
Future	-12.3418
86_64.	-12.3418
MongoDB	-12.3419
DBAL	-12.342
Username	-12.3421
Mix	-12.3421
automatic	-12.3421
warn	-12.3423
stars	-12.3424
yan	-12.3426
313	-12.3427
759	-12.3429
mapnik	-12.3429
354	-12.3432
Pic	-12.3436
426	-12.3436
libexif	-12.344
ndr	-12.3444
Exists	-12.3446
578	-12.3447
even	-12.3447
iaas	-12.3448
Express	-12.3449
aac	-12.345
▁mods	-12.3454
▁openstack	-12.3455
Accordion	-12.3456
forecast	-12.3456
triangle	-12.3456
locks	-12.3456
eeprom	-12.3457
036	-12.3458
Markup	-12.3458
openbsd	-12.3459
mycompany	-12.3459
052.	-12.346
▁autogenerated	-12.346
resp	-12.3461
Craft	-12.3463
runners	-12.3464
Opam	-12.3464
forest	-12.3465
kim	-12.3465
552	-12.3465
mud	-12.3466
Fail	-12.3467
UtilsTest	-12.3468
Scrolling	-12.3468
userguide	-12.3468
846	-12.3469
TestAsset	-12.347
CodeCloud	-12.347
stand	-12.3472
easing	-12.3473
xpressive	-12.3474
sorting	-12.3478
681	-12.3478
colordialog	-12.3479
Curl	-12.3479
dmp	-12.3479
jan	-12.3481
pow	-12.3482
cifs	-12.3484
IA	-12.3485
sumo	-12.3487
bpf	-12.3487
multimedia	-12.3488
polar	-12.3489
gulpfile	-12.3491
Coordinator	-12.3494
Privacy	-12.3494
lxqt	-12.3494
460	-12.3494
stroke	-12.3495
impact	-12.3495
914	-12.3495
925	-12.3496
informer	-12.3496
263	-12.3499
Bookmark	-12.3499
sortBy	-12.3501
Sw	-12.3504
Recent	-12.3505
854	-12.3505
Submission	-12.3506
Kart	-12.3507
849	-12.3509
883	-12.3509
onos	-12.351
aje	-12.3513
refine	-12.3513
dml	-12.3515
977	-12.3517
legal	-12.3521
BLT	-12.3523
986	-12.3524
pendencies	-12.3525
kali	-12.3526
coopr	-12.3527
Recorder	-12.3527
▁meet	-12.3528
955	-12.3528
bamboos	-12.3532
ShaderEffectPack	-12.3532
Kafka	-12.3532
UniRx	-12.3532
while	-12.3532
gravityforms	-12.3532
2014/2014-	-12.3532
hydrogen	-12.3532
Kind	-12.3533
Github	-12.3533
itz	-12.3534
broadcast	-12.3534
finally	-12.3536
webview	-12.3537
bos	-12.3539
psysh	-12.354
SimpleGame	-12.3546
324	-12.3546
branches	-12.3547
FileList	-12.3548
028	-12.3553
bdd	-12.3554
exa	-12.3556
Personal	-12.3558
hang	-12.356
intltest	-12.3563
▁Demos	-12.3567
451	-12.3567
503	-12.3569
reporters	-12.357
Budget	-12.357
raspberry	-12.357
▁Pooling	-12.357
Staff	-12.357
InvalidArgument	-12.3571
Combine	-12.3571
695	-12.3572
voltdb	-12.3574
forever	-12.3575
Beam	-12.3577
Wood	-12.3577
isobject	-12.3579
541	-12.358
975	-12.358
quickstart	-12.3583
Sorted	-12.3584
FileUpload	-12.3585
Registered	-12.3585
ctf	-12.3589
Band	-12.3594
Payments	-12.3594
strapi	-12.3598
tig	-12.3599
lou	-12.36
scraper	-12.3601
keymap	-12.3604
genproto	-12.3605
▁VimeoNetworking	-12.3607
iwlwifi	-12.3609
MSAL	-12.3609
GeoIP	-12.361
hmrc	-12.361
Enter	-12.361
treeview	-12.3612
mesos	-12.3612
Locker	-12.3612
2-4	-12.3614
tracer	-12.3614
iommu	-12.3619
virtio	-12.3621
715	-12.3625
iser	-12.3625
myClasses	-12.3626
bil	-12.3633
689	-12.3634
pact	-12.3636
Vol	-12.3637
want	-12.3637
reactor	-12.3639
712	-12.364
895	-12.3647
cliff	-12.3647
False	-12.3647
bukkit	-12.3647
sentence	-12.3647
biomass	-12.3647
Stomp	-12.3648
74795	-12.3649
Experimental	-12.3649
formatting	-12.3649
Bool	-12.3652
tbx	-12.3653
stem	-12.3657
Egit	-12.3657
ppt	-12.3659
polling	-12.3667
ivity	-12.3668
708	-12.3669
aura	-12.3669
-1.7.	-12.3671
vent	-12.3671
fair	-12.3672
Dynamics	-12.3674
780	-12.3675
367	-12.3681
pfappserver	-12.3686
fteproxy	-12.3686
minimum	-12.3686
Secret	-12.3686
false	-12.3686
atic	-12.3688
-5.0.1	-12.3688
forEach	-12.3688
909	-12.3692
fixes	-12.3693
sensu	-12.3694
grails	-12.37
wsync	-12.3701
beo	-12.3705
SMO	-12.3708
ndef	-12.3714
tai	-12.3715
reload	-12.3716
tray	-12.3716
sides	-12.3717
but	-12.3718
Implement	-12.3718
transcript	-12.3718
VIM	-12.372
rtmidi	-12.3721
priority	-12.3725
reservation	-12.3725
libmpq	-12.3725
Dropdown	-12.3726
Bootstrapper	-12.3726
prosilver	-12.3726
Rulesets	-12.3727
ckextra	-12.3727
-0.1.13/	-12.3728
Revision	-12.3728
Kinect	-12.373
683	-12.3731
msl	-12.3733
det	-12.3737
cfm	-12.3738
Tcp	-12.3741
647	-12.3741
uba	-12.3743
eyes	-12.3744
testcase	-12.3748
356	-12.3748
▁Infin	-12.3749
dlm	-12.3753
cmdline	-12.3754
RoutineT	-12.3755
snake	-12.3756
Bindings	-12.3756
webextension	-12.3757
glyph	-12.3758
prefer	-12.3758
053.	-12.3759
corn	-12.376
arel	-12.376
nltk	-12.3761
webactiv	-12.3762
Reflect	-12.3763
enumerate	-12.3764
Absolute	-12.3764
Compatibility	-12.3764
APS	-12.3764
392	-12.3765
helg	-12.3766
userstate	-12.3769
dron	-12.3769
WordPress	-12.377
classification	-12.3774
izable	-12.3776
movies	-12.3777
fault	-12.3778
MQ	-12.3779
song	-12.3782
227	-12.3782
972	-12.3783
isEmpty	-12.3783
finance	-12.3785
0_0.	-12.3785
dam	-12.3786
clamp	-12.3791
Mage	-12.3791
884	-12.3792
digi	-12.3796
ipt	-12.3796
923	-12.3798
▁note	-12.3799
idp	-12.38
810	-12.3801
reorder	-12.3803
verification	-12.3804
AutoTestData	-12.3804
layui	-12.3806
rBuilder	-12.3807
jnosql	-12.3807
223	-12.3807
9_1	-12.381
iPhone	-12.3811
dimensions	-12.3815
PhpParser	-12.3815
paginators	-12.3815
941	-12.3816
Tokens	-12.3816
mingw	-12.3818
RL	-12.3822
571	-12.3822
trig	-12.3825
957	-12.3826
miner	-12.3836
054.	-12.3838
polyfills	-12.3842
wrong	-12.3843
mockups	-12.3844
/37/37	-12.3845
zope	-12.3845
undefined	-12.3845
Vendor	-12.3849
readline	-12.385
another	-12.385
FA	-12.3853
direction	-12.3855
assu	-12.386
2.0-	-12.3861
219	-12.3863
rIN	-12.3863
▁hackathon	-12.3865
722	-12.3866
7_1	-12.387
252	-12.3872
Appbar	-12.3872
GMS	-12.3873
twinc	-12.3877
TypeEnum	-12.3878
362	-12.3879
Family	-12.3882
Rakefile	-12.3882
Speech	-12.3882
deburr	-12.3882
Finance	-12.3882
566	-12.3882
@1	-12.3883
jira	-12.3885
papart	-12.3886
gauss	-12.3887
938	-12.389
▁Hero	-12.3891
exact	-12.3893
iadd	-12.3896
653	-12.3898
Piece	-12.3902
behaviors	-12.3903
873	-12.3904
prov	-12.3909
interrupt	-12.3915
887	-12.3916
evm	-12.3917
expose	-12.3917
▁dvb	-12.3918
dyna	-12.3919
Screenshot	-12.3922
_20140122	-12.3922
volatility	-12.3922
Paypal	-12.3922
-1.0.1	-12.3922
dipole	-12.3922
EigenSolver	-12.3922
-0.8.0	-12.3924
ingress	-12.3925
ebf	-12.3925
krb	-12.3925
helloworld	-12.3926
379	-12.3927
CUR	-12.3928
pfs	-12.3929
datascience	-12.3932
Reporting	-12.3934
668	-12.3934
stdout	-12.3936
featured	-12.3941
explore	-12.3942
workbox	-12.3943
ulp	-12.3943
interactions	-12.3948
314	-12.3951
▁Libraries	-12.3956
472	-12.3957
fem	-12.3959
mobilebackend	-12.396
cyan	-12.3961
Berry	-12.3961
opendaylight	-12.3961
Peripheral	-12.3961
Decision	-12.3961
DotNETJumpStart	-12.3962
Arithmetic	-12.3962
employee	-12.3962
voucher	-12.3962
Eastern	-12.3962
ResolveAssembly	-12.3962
assistance	-12.3962
sanity	-12.3963
sensorhub	-12.3963
omniauth	-12.3963
Singleton	-12.3964
Photos	-12.3964
-0.6.1	-12.3964
1200	-12.3967
saved	-12.3967
emails	-12.3967
Postgre	-12.3968
julia	-12.3969
microprofile	-12.397
lxde	-12.397
AsyncTask	-12.3971
cardone	-12.3972
compta	-12.3974
mort	-12.3982
▁vsproject	-12.3982
832	-12.3984
Lead	-12.3985
969	-12.3986
▁webkit	-12.3987
ATE	-12.3987
feel	-12.3995
Vp	-12.3999
055.	-12.4
fetcher	-12.4001
LocalServiceClp	-12.4001
Authenticate	-12.4002
Contribution	-12.4002
exclamation	-12.4002
TestWebKitAPI	-12.4002
possible	-12.4002
btrfs	-12.4002
Medium	-12.4002
envoy	-12.4002
Hydrator	-12.4002
circe	-12.4002
lwawt	-12.4003
dualonly	-12.4003
-1.2.2.1/	-12.4003
vsprops	-12.4004
Notify	-12.4004
Checked	-12.4006
▁paddle	-12.4006
atmel	-12.4007
FSharp	-12.4011
Standalone	-12.4012
908	-12.4014
dhd	-12.4015
autoconf	-12.4015
miss	-12.4016
beast	-12.4025
wear	-12.4027
imu	-12.4028
zrender	-12.4029
octo	-12.403
EB	-12.4031
signer	-12.4039
ProviderTest	-12.404
Abs	-12.404
Visuals	-12.4041
trail	-12.4041
telefoni	-12.4042
ceylon	-12.4042
destination	-12.4042
Letter	-12.4042
▁instat	-12.4042
klei	-12.4042
Grey	-12.4042
Timestamp	-12.4043
ServletContainer	-12.4043
whois	-12.4047
inputmask	-12.4048
ACT	-12.4051
Dota	-12.4051
ule	-12.4059
sgml	-12.4065
501	-12.4065
673	-12.4067
Story	-12.4067
pep	-12.4068
QR	-12.4069
equations	-12.407
rtaudio	-12.4076
▁firmware	-12.4078
ranges	-12.4078
Cmdlets	-12.408
ScrollView	-12.4081
logistics	-12.4082
skaffold	-12.4082
gorilla	-12.4082
Composition	-12.4083
/12.0/	-12.4083
Ratio	-12.4084
acsGUI	-12.4084
scorm	-12.4084
qrc	-12.4086
loo	-12.4087
addins	-12.4088
gru	-12.4093
vscode	-12.4093
igb	-12.4097
nth	-12.4098
557	-12.4098
authorize	-12.4098
painter	-12.4105
TempFile	-12.4109
0009	-12.411
You	-12.411
vga	-12.4112
Hint	-12.4113
pwm	-12.4116
Swap	-12.412
898	-12.4121
Ordered	-12.4122
917	-12.4122
Inspection	-12.4122
Intermediate	-12.4122
browscap	-12.4122
ginkgo	-12.4122
fasterxml	-12.4122
Distributed	-12.4123
harmattan	-12.4123
CurrencyRates	-12.4123
superagent	-12.4123
selectall	-12.4124
Castle	-12.4124
Imports	-12.4124
dots	-12.4126
evening	-12.4128
870	-12.4129
ribbon	-12.4132
printing	-12.4134
ecm	-12.4137
CGI	-12.4137
feat	-12.4138
▁lms	-12.4138
imagej	-12.4139
843	-12.4144
ntp	-12.4147
Mailer	-12.4147
bookstore	-12.4148
labeled	-12.4151
MenuButton	-12.4152
mpt	-12.4154
ector	-12.4154
442	-12.4163
Apache	-12.4163
Clause	-12.4163
psafety	-12.4163
fallback	-12.4163
plural	-12.4163
2.0/2017/	-12.4164
▁OpenSim	-12.4164
twocol	-12.4164
truth	-12.4165
Country	-12.4165
Grant	-12.4168
stylus	-12.4168
too	-12.417
groupBy	-12.4172
Jpa	-12.4175
epi	-12.4176
ota	-12.4178
679	-12.4178
Watcher	-12.418
sord	-12.418
netlink	-12.4182
isNull	-12.4183
099	-12.4184
Facet	-12.4186
rdma	-12.4187
ette	-12.4187
dfb	-12.4189
Slides	-12.4194
intent	-12.4197
813	-12.4204
traversal	-12.4204
Ontology	-12.4204
ocorre	-12.4204
bulma	-12.4204
Enemy	-12.4204
nagios	-12.4204
088	-12.4205
Proj	-12.4208
caffe	-12.421
8-4	-12.4211
ApiTest	-12.4211
idm	-12.4212
00101	-12.4213
Tex	-12.4213
865	-12.4214
dpa	-12.4216
homework	-12.4218
edcon	-12.422
inbox	-12.4224
ngig	-12.4226
poke	-12.4226
slow	-12.4226
452	-12.4229
switcher	-12.4232
423	-12.4235
Resolve	-12.4236
266	-12.4238
greg	-12.424
vnc	-12.4242
ddlog	-12.4243
WX	-12.4243
Arena	-12.4245
characteristic	-12.4245
Clipboard	-12.4246
Modify	-12.4247
COM	-12.4248
dawg	-12.4248
adapted	-12.4249
4_19_	-12.425
CheckBox	-12.4253
Exec	-12.4253
resolution	-12.4253
contributors	-12.4255
Logical	-12.4256
663	-12.4256
▁variants	-12.4256
playable	-12.4259
rapid	-12.4259
steve	-12.4259
tracing	-12.4262
ndbapi	-12.4263
arab	-12.4264
Best	-12.4266
sharepoint	-12.4271
toString	-12.4276
391	-12.4278
TOR	-12.428
091.	-12.4281
exercise	-12.4281
otg	-12.4281
valencia	-12.4286
vaadin	-12.4286
Adaptive	-12.4286
Students	-12.4287
Study	-12.4287
DAV	-12.4287
/32/2	-12.4288
cate	-12.4288
resid	-12.4289
ille	-12.4289
isub	-12.429
btl	-12.4292
944	-12.4292
Browse	-12.4293
teal	-12.4296
jvmtool	-12.4298
371	-12.4304
▁flink	-12.4305
WebForms	-12.4306
Party	-12.4306
bigquery	-12.4307
DataModel	-12.4327
peripheral	-12.4327
Programming	-12.4328
Verifier	-12.4328
Aircraft	-12.4328
Statements	-12.4328
pullAll	-12.4329
Burn	-12.433
619	-12.4331
691	-12.4332
Failed	-12.4332
extsprintf	-12.4332
CircleApp	-12.4333
▁osgi	-12.4333
nlassert	-12.4334
624	-12.4334
NSObject	-12.4335
Screens	-12.4342
corner	-12.4345
829	-12.4348
opencv	-12.4348
477	-12.4349
caller	-12.4349
Listing	-12.435
rooms	-12.435
etaSwaggerClient	-12.4351
cow	-12.4355
733	-12.4356
things	-12.4358
kew	-12.4359
Ku	-12.436
beez	-12.4362
ACL	-12.4366
587	-12.4367
/4.02.0/201409	-12.4368
aurelia	-12.4369
league	-12.4369
Slave	-12.4369
Ghidra	-12.4369
ProgressBar	-12.437
GLM	-12.4371
terser	-12.4372
metaborg	-12.4372
FileManager	-12.4375
845	-12.4375
SVI	-12.4378
configurations	-12.4379
Points	-12.4379
Protocols	-12.4381
artemis	-12.4382
175.	-12.4384
364	-12.4386
flower	-12.4386
gpg	-12.4386
aix	-12.4388
foliat	-12.439
824	-12.4392
Xcode	-12.4393
ValidatorTest	-12.4394
Trip	-12.4402
Ub	-12.4403
059.	-12.4405
podcast	-12.4407
deathknight	-12.441
}}/	-12.4411
Responsive	-12.4411
twilio	-12.4411
popular	-12.4411
AddAsyncTask	-12.4411
Growl	-12.4411
Tiny	-12.4411
428	-12.4415
1_9_	-12.4416
Inner	-12.4417
present	-12.4418
816	-12.4418
Intent	-12.4419
propgrid	-12.4421
MY	-12.4423
ipmi	-12.4423
parm	-12.4424
BSD	-12.4426
Swp	-12.4431
382	-12.4432
sampler	-12.4434
bff	-12.444
ixp	-12.4443
herd	-12.4445
overload	-12.4445
Snippets	-12.4449
steam	-12.4451
▁bots	-12.4452
NdefLibrary	-12.4452
nacional	-12.4452
messenger	-12.4452
Tweet	-12.4452
▁Gedi	-12.4453
joinfaces	-12.4453
Motor	-12.4455
▁wcf	-12.4455
deflate	-12.4456
Matching	-12.4456
FormsMasterPages	-12.4457
adapt	-12.4457
517	-12.4459
Dead	-12.446
739	-12.446
ServiceBus	-12.4461
linkedin	-12.4461
copyright	-12.4464
tlb	-12.4466
ceil	-12.4467
stmt	-12.447
598	-12.4474
mann	-12.4474
▁Universal	-12.4477
both	-12.4484
GI	-12.4484
_1_2	-12.4486
efa	-12.4486
rond	-12.4487
Cu	-12.4491
HttpRequest	-12.4492
Procedures	-12.4493
jacoco	-12.4494
MSComctlLib	-12.4494
Petaluma	-12.4494
estimator	-12.4494
Weapon	-12.4495
Together	-12.4495
libewf	-12.4495
815	-12.4495
▁Dispatching	-12.4495
jive	-12.4496
OB	-12.4497
splitter	-12.4498
hiredis	-12.45
typing	-12.45
greater	-12.4501
TextUI	-12.4504
Strip	-12.4506
▁toolkit	-12.4506
CPU	-12.4507
DAP	-12.4508
pig	-12.4512
chooser	-12.4516
DZ	-12.4517
-1.1.0	-12.452
Cases	-12.4522
uan	-12.4523
Indexed	-12.4524
140.	-12.4526
orion	-12.4529
Scr	-12.453
Third	-12.4534
LFTincan	-12.4537
▁roundware	-12.4537
federated	-12.4537
templating	-12.4537
aergia	-12.4537
MotionBlur	-12.4537
Verification	-12.4537
orchestrator	-12.4537
lastIndexOf	-12.4537
distrib	-12.4538
Construct	-12.4539
841	-12.4542
Btn	-12.4542
229	-12.4543
logback	-12.4544
645	-12.4547
tablepress	-12.4548
411	-12.4551
dsa	-12.4553
isstream	-12.4553
extern	-12.4554
RSA	-12.4555
frm	-12.4558
UE	-12.4559
kbd	-12.4562
Proof	-12.4566
Words	-12.4569
Variants	-12.4575
tube	-12.4577
morpheus	-12.4579
spectrum	-12.4579
rainbow	-12.4579
chocolatey	-12.4579
ixgbe	-12.4579
dmqmc	-12.4579
seims	-12.4579
ComboBox	-12.458
RecoveryServices	-12.458
secondary	-12.458
eagle	-12.458
Boo	-12.458
575	-12.4583
Freeze	-12.4585
Moment	-12.4586
DefaultTheme	-12.4587
packer	-12.4589
Ens	-12.4589
sqrt	-12.4589
relations	-12.459
rose	-12.4593
enabled	-12.4597
664	-12.46
gmail	-12.4607
Domains	-12.461
Criteria	-12.461
Au	-12.461
aaf	-12.4611
forced	-12.4611
here	-12.4614
shiv	-12.4614
subset	-12.4615
portlets	-12.4616
▁LeanChat	-12.4616
ket	-12.4618
opera	-12.4618
RequestHandler	-12.4621
libavcodec	-12.4622
NewAzure	-12.4622
vfsStream	-12.4622
gspca	-12.4624
IBM	-12.4625
/0.0.2/	-12.4626
Synth	-12.4626
791	-12.4628
storio	-12.4631
579	-12.4632
420	-12.4636
elo	-12.4637
jmeter	-12.4638
onnx	-12.4639
learner	-12.464
allocation	-12.464
adam	-12.4641
Eye	-12.4643
appglu	-12.4644
baseProperty	-12.4644
001013	-12.4646
-0.4.1	-12.4646
464	-12.4655
Sea	-12.4655
integ	-12.4656
procedures	-12.4657
gemfile	-12.4657
slaves	-12.4658
UtilTest	-12.4659
mcp	-12.4659
dataact	-12.466
Bcl	-12.466
mutation	-12.4661
Embedded	-12.4661
569	-12.4662
conversions	-12.4663
MB	-12.4664
calibre	-12.4665
sampling	-12.4665
LLVM	-12.4665
transparent	-12.4666
hidpi	-12.4667
Thri	-12.4668
spinlock	-12.4668
Balance	-12.4674
WebServer	-12.4674
iteratee	-12.4676
413	-12.4677
848	-12.468
serving	-12.4682
gsp	-12.4687
XCommon	-12.4694
/7/72	-12.4697
879	-12.4699
pegasus	-12.4707
Basket	-12.4707
Purchase	-12.4707
oevsv	-12.4707
Circular	-12.4707
jackrabbit	-12.4707
wysi	-12.4708
AndroidApp	-12.4709
660	-12.4709
portrait	-12.471
0005	-12.4712
phys	-12.4713
webtrans	-12.4716
Interop	-12.4716
Brain	-12.4723
821	-12.4728
warp	-12.4728
Foo	-12.4728
nats	-12.4729
/7/75	-12.473
Scheduled	-12.4734
OUT	-12.4734
ssd	-12.4734
psm	-12.4736
Eco	-12.4738
emotions	-12.4739
/7/74	-12.4743
AO	-12.4748
ImageView	-12.4748
Inst	-12.4748
Captcha	-12.475
-4.0.11/	-12.475
699	-12.4751
population	-12.4751
wpclef	-12.4751
Putting	-12.4751
DOCS	-12.4752
▁Cask	-12.4752
beacon	-12.4752
381	-12.4754
wildcard	-12.4754
calculate	-12.4755
Patterns	-12.4755
hotkeys	-12.4755
versioned	-12.4757
umble	-12.4759
GSF	-12.4759
Song	-12.4759
know	-12.4761
olog	-12.4762
foreach	-12.4763
698	-12.4764
fir	-12.4764
mathml	-12.4767
Charts	-12.4767
PW	-12.477
ancy	-12.4775
cheat	-12.4776
177	-12.4783
bytestring	-12.4783
WebSites	-12.4785
DataType	-12.4785
jps	-12.4787
couch	-12.479
blocking	-12.479
Acl	-12.479
joy	-12.4791
889	-12.4791
honeybees	-12.4793
polynomial	-12.4794
Gallifrey	-12.4794
reduction	-12.4794
weixin	-12.4794
daily	-12.4794
ThirdPerson	-12.4794
inria	-12.4794
Spinner	-12.4794
permute	-12.4795
holder	-12.4797
logbook	-12.4798
bbct	-12.4798
wsdl	-12.48
NFServer	-12.48
sdio	-12.4801
kml	-12.4801
596	-12.4803
authz	-12.4803
422	-12.4808
981	-12.4812
▁neutron	-12.4813
839	-12.482
trx	-12.4827
elec	-12.4828
PART	-12.4829
jca	-12.4831
recommend	-12.4831
pit	-12.4833
Fish	-12.4833
urdf	-12.4833
/9.8.0/	-12.4837
FILES	-12.4837
tranquility	-12.4837
Scatter	-12.4837
multiply	-12.4837
▁drools	-12.4837
spacing	-12.4838
2003	-12.4838
tmPreferences	-12.4838
kalman	-12.4838
felix	-12.4838
fits	-12.4838
JavaEE	-12.4839
stdin	-12.4843
Elementary	-12.4844
modeling	-12.4848
reach	-12.4848
Four	-12.4848
pluck	-12.4848
oria	-12.4851
may	-12.4856
unreleased	-12.4859
056.	-12.486
792	-12.4862
/7/76	-12.4862
magick	-12.4863
comma	-12.4864
Tip	-12.4867
ForRes	-12.4873
Inject	-12.4878
Alter	-12.4878
loggly	-12.4881
uikitifier	-12.4881
Histogram	-12.4881
horner	-12.4881
monero	-12.4881
057.	-12.4881
Jonas	-12.4881
Chronos	-12.4881
▁blockly	-12.4881
findLastIndex	-12.4881
findLast	-12.4882
languagetool	-12.4882
tika	-12.4883
publications	-12.4886
libiconv	-12.4893
NetCore	-12.4893
sentry	-12.4894
HP	-12.4896
Platformer	-12.4897
kcm	-12.4897
simulate	-12.4901
570	-12.4907
dParty	-12.4908
/7/78	-12.4911
728	-12.4912
modem	-12.4914
oga	-12.4915
wal	-12.4921
ION	-12.4922
Mirror	-12.4923
4/1-	-12.4924
TEMPLATE	-12.4925
chosen	-12.4925
contextual	-12.4925
-0.4.2.0/	-12.4925
cropped	-12.4925
newsletter	-12.4925
wireframe	-12.4925
Ball	-12.4926
Addons	-12.4926
guidelines	-12.4927
mnist	-12.4927
ContextMenu	-12.4927
Relay	-12.4927
Abstractions	-12.4928
argres	-12.4928
Zak	-12.4931
notebookservice	-12.4932
timepicker	-12.4934
sorter	-12.4936
conforms	-12.4937
rpg	-12.4937
websites	-12.4938
else	-12.4939
reaction	-12.4941
Flight	-12.4941
861	-12.4942
objectstorage	-12.4948
archives	-12.4951
SearchResult	-12.4951
Cards	-12.4953
612	-12.4956
dataexchange	-12.496
tuso	-12.4961
SFA	-12.4962
632	-12.4963
netstandard	-12.4963
Contain	-12.4964
axes	-12.4968
-0.26.1/	-12.4969
omi	-12.4969
2_23_	-12.4971
Pen	-12.4975
ldrtl	-12.4976
ddd	-12.4979
Stdlib	-12.498
882	-12.498
ConverterTest	-12.4986
mbo	-12.4993
City	-12.4996
ensemble	-12.5003
648	-12.5006
qual	-12.5012
Spotify	-12.5013
margarets	-12.5013
Margin	-12.5013
cursus	-12.5013
Sandbox	-12.5013
airbnb	-12.5013
jabber	-12.5013
966	-12.5013
Construction	-12.5014
capability	-12.5014
Supported	-12.5015
Pp	-12.5017
memberships	-12.5019
diem	-12.502
MetaModels	-12.502
GH	-12.5021
newspaper	-12.5022
nxs	-12.5022
badges	-12.5023
caps	-12.5023
929	-12.5028
benefits	-12.5031
sanitize	-12.5033
sgi	-12.5033
Blueprints	-12.5035
xtra	-12.5036
▁TYP	-12.5037
924	-12.5043
bricks	-12.5044
ctps	-12.5047
095	-12.5048
Injector	-12.505
claus	-12.505
busy	-12.505
motor	-12.5053
675	-12.5053
-4.5.0/	-12.5057
cyberduck	-12.5058
reddit	-12.5058
capitalize	-12.5058
pressure	-12.5058
Thirdparty	-12.5059
863	-12.5062
XWiki	-12.5063
872	-12.5063
412	-12.5063
preserve	-12.5065
MetaEditor	-12.5065
092.	-12.5065
wasm	-12.5068
tlc	-12.5072
emic	-12.5073
memo	-12.5074
911	-12.5074
oct	-12.5075
lps	-12.5076
HA	-12.5077
bias	-12.508
grip	-12.5087
RData	-12.51
FilterTest	-12.51
.2.1/1.0/	-12.5102
grobid	-12.5102
Australia	-12.5102
concerns	-12.5102
boundary	-12.5103
Paths	-12.5103
wireframes	-12.5105
Bid	-12.5109
instant	-12.5115
▁academic	-12.5116
modifiers	-12.5119
WebGL	-12.5123
receive	-12.5124
Timeout	-12.5127
accel	-12.5129
Args	-12.5131
atabasemigration	-12.5138
Blacklist	-12.5142
Alarm	-12.5142
delegates	-12.5142
Seed	-12.5142
axelor	-12.5147
EsRequest	-12.5147
conntrack	-12.5147
Spots	-12.5147
Ruby	-12.5148
scoring	-12.5148
genericons	-12.5149
Forge	-12.5149
humanize	-12.5149
sprout	-12.515
992	-12.515
obo	-12.5152
typ	-12.5153
qz	-12.5155
Dict	-12.5156
vertx	-12.516
ffi	-12.5161
fpu	-12.5162
862	-12.5163
pptx	-12.5168
987	-12.5169
087	-12.5171
shade	-12.5173
Coll	-12.5174
3_3_	-12.5175
823	-12.5178
snappy	-12.5179
busse	-12.5188
ediscovery	-12.5189
gda	-12.5191
SwiftyJSON	-12.5192
QuickPulse	-12.5192
TypeForwarders	-12.5192
Traversal	-12.5192
queakCheck	-12.5192
Adventure	-12.5192
syntastic	-12.5192
MAVLink	-12.5192
mavlink	-12.5192
Think	-12.5192
distinct	-12.5192
mediacloud	-12.5193
Hyper	-12.5194
Topics	-12.5195
Installers	-12.5196
highlighting	-12.5196
CacheTest	-12.5197
tips	-12.5198
▁WIP	-12.52
vmware	-12.52
Slim	-12.5202
encrypted	-12.5206
931	-12.521
visualizer	-12.5211
aem	-12.5212
Oauth	-12.5214
rear	-12.5217
993	-12.5217
093.	-12.5217
964	-12.522
gloss	-12.5224
roman	-12.5226
248.	-12.5227
baseFor	-12.5228
dest	-12.5228
Rich	-12.523
feb	-12.523
Dec	-12.5232
CloudService	-12.5235
952	-12.5237
invitation	-12.5237
jersey	-12.5237
▁{{	-12.5237
Snake	-12.5237
BulletCollision	-12.5237
yamcs	-12.5237
bugzilla	-12.5238
Topology	-12.5238
aptana	-12.5238
DatePicker	-12.5239
meet	-12.5239
Fig	-12.5241
Land	-12.5242
trailing	-12.5242
amil	-12.5261
dry	-12.5261
3200	-12.5265
amqplib	-12.5265
phylo	-12.5272
Homework	-12.5275
bow	-12.528
Adaptor	-12.5281
Wild	-12.5282
troelsen	-12.5282
Teknoputra	-12.5282
NoSuch	-12.5282
SpeedTree	-12.5283
UIImage	-12.5283
morgan	-12.5284
ToolTest	-12.5284
Cliff	-12.5285
coord	-12.5286
damage	-12.5287
resizable	-12.5289
icmp	-12.5291
strongbox	-12.5291
ChannelServer	-12.5292
GML	-12.5293
▁PWG	-12.5295
socks	-12.5301
Skill	-12.5303
docprops	-12.5307
neutron	-12.5307
reading	-12.5308
ebb	-12.5313
anago	-12.5315
mytex	-12.5317
Prerender	-12.5317
iPlatform	-12.5317
Criterion	-12.532
Late	-12.5324
shutdown	-12.5328
energetic	-12.5328
testRunLocally	-12.5328
VERSION	-12.5328
Priority	-12.5328
repaint	-12.5335
096	-12.5335
CAS	-12.5337
JMS	-12.5337
Implements	-12.5338
MU	-12.5338
percent	-12.5339
sjk	-12.534
Tagger	-12.534
948	-12.5344
611	-12.5345
ANA	-12.5346
elem	-12.5347
Semi	-12.5347
Elastica	-12.5349
eigensolver	-12.5352
trainer	-12.5355
922	-12.5357
602	-12.536
rdw	-12.5362
Sec	-12.5362
Shapes	-12.5362
pill	-12.5367
hdmi	-12.5368
TIT	-12.5369
orthrend	-12.5371
thru	-12.5373
Configurator	-12.5374
ratchet	-12.5374
VuFind	-12.5374
achievement	-12.5374
scientific	-12.5374
recording	-12.5374
grakn	-12.5374
UserService	-12.5375
▁Telegram	-12.5376
exporters	-12.5377
WindowsAzure	-12.5377
subscriber	-12.5379
631	-12.5381
▁Stud	-12.5386
ality	-12.5386
flim	-12.5388
motech	-12.539
webhook	-12.539
jemma	-12.5391
creatures	-12.5396
Your	-12.5398
negate	-12.5399
FunctionalTests	-12.5407
0.15	-12.5407
NFComm	-12.541
814	-12.5413
jz	-12.5415
Resize	-12.542
058.	-12.542
uranium	-12.542
LoveCurrency	-12.542
thaiopensource	-12.542
Financial	-12.542
evmjit	-12.542
Rotate	-12.542
deserializer	-12.5421
inheritance	-12.5421
Correction	-12.5422
mylyn	-12.5423
Existing	-12.5423
OSGB	-12.5423
Dock	-12.5423
cairo	-12.5424
sidepanel	-12.5424
fingerprint	-12.5425
0.3.1/	-12.5425
measurement	-12.5426
sctp	-12.5426
swipe	-12.5427
Correlation	-12.5428
fog	-12.5429
Echo	-12.5429
SessionManager	-12.5432
demands	-12.544
Workers	-12.544
gte	-12.5443
/7/79	-12.5443
Triple	-12.5445
951	-12.5453
VL	-12.5454
ThreeL	-12.5462
Calls	-12.5466
Angle	-12.5467
curryRight	-12.5467
Num	-12.5467
ayerRealmXFNuGet	-12.5467
tms	-12.5467
Extraction	-12.5468
NumberFlow	-12.5469
accessors	-12.547
hisax	-12.547
Broadcast	-12.5471
NSString	-12.5471
idish	-12.5472
453	-12.5474
Fixer	-12.5478
pico	-12.5479
typewriter	-12.548
AppGui	-12.5483
RepositoryTest	-12.5483
Transactions	-12.5485
kat	-12.5485
963	-12.5485
flatpages	-12.5488
carl	-12.5494
fuzzy	-12.5495
Lin	-12.5499
EnvAssets	-12.5502
SqlDatabase	-12.5503
positions	-12.5507
wat	-12.5508
enderio	-12.5508
0008	-12.551
Refactoring	-12.5512
subtract	-12.5513
narayana	-12.5513
LibExifModule	-12.5513
SwpFMDBDemo	-12.5513
Reason	-12.5513
NPOKit	-12.5513
steadystate	-12.5513
instruction	-12.5513
GoldenKeys	-12.5513
GoldendKeys	-12.5513
padding	-12.5513
cvmfs	-12.5514
costprob	-12.5514
announcement	-12.5516
Concat	-12.5516
opencms	-12.5516
943	-12.5517
▁Reaktoro	-12.5518
HT	-12.552
Authorize	-12.5523
876	-12.5524
Sep	-12.5527
▁pract	-12.5527
nag	-12.5533
beep	-12.5534
sep	-12.5536
webrat	-12.5537
Ets	-12.5539
FieldType	-12.5539
sirius	-12.5541
VB	-12.5542
IDB	-12.5543
isFunction	-12.5545
clan	-12.5547
QL	-12.5549
coffeescript	-12.5552
debugfs	-12.5552
554	-12.5557
Second	-12.5559
gaffer	-12.556
▁Accident	-12.556
Taxonomy	-12.556
Polish	-12.556
Reminder	-12.556
lustre	-12.556
Follow	-12.5561
hubspot	-12.5561
Protected	-12.5562
shard	-12.5564
weapons	-12.5574
fci	-12.5577
umask	-12.5578
dirac	-12.5579
4_22_	-12.5579
glance	-12.5581
UL	-12.5585
649	-12.5585
prot	-12.5585
/1.2.	-12.559
893	-12.5593
▁WebForms	-12.5594
DFG	-12.5598
0-4	-12.5603
colorbutton	-12.5603
Disp	-12.5603
▁'	-12.5603
ISC	-12.5604
hybrid	-12.5607
Billing	-12.5607
Usuario	-12.5607
autojsoncxx	-12.5607
Paste	-12.5607
tempest	-12.5609
/34/34	-12.561
UG	-12.5612
masterslave	-12.5612
mantis	-12.5614
2_22_	-12.5616
rent	-12.5616
Catel	-12.5617
PV	-12.5618
whitelist	-12.5618
workerman	-12.5622
8500	-12.5625
cry	-12.5627
isArrayLike	-12.5627
▁201405	-12.5634
pprof	-12.5635
Rewrite	-12.564
rig	-12.5643
038	-12.5644
isArray	-12.5647
Restore	-12.5651
bosh	-12.5652
Negative	-12.5654
asterisk	-12.5654
juggler	-12.5654
Collective	-12.5654
scot	-12.5655
971	-12.5655
Cave	-12.5657
listen	-12.5658
gfs	-12.5658
cty	-12.5662
Sounds	-12.5663
sure	-12.5667
walker	-12.5667
iro	-12.5667
reducer	-12.5668
Where	-12.5669
STL	-12.567
800141	-12.5672
SRS	-12.5674
/3.3/	-12.5675
Pull	-12.5679
anger	-12.5681
▁2014082	-12.5683
OL	-12.5683
Layers	-12.5685
584	-12.5686
rou	-12.5697
Barcode	-12.5698
chainerx	-12.5698
dfg	-12.5701
syscalls	-12.5701
Fluid	-12.5701
laptop	-12.5701
nlineBookStore	-12.5701
SuperLU	-12.5702
prelude	-12.5702
▁arangod	-12.5702
swt	-12.5702
Fraction	-12.5702
cyrl	-12.5703
Stamp	-12.5703
Apple	-12.5704
DataGrid	-12.5705
LuaPlugin	-12.5705
IDE	-12.5706
Paper	-12.571
pify	-12.5716
Shot	-12.5719
sourcedialog	-12.5721
LocalResources	-12.5721
slf	-12.5727
vista	-12.5731
edition	-12.5731
teur	-12.5742
▁Reaktor	-12.5744
FormTest	-12.5749
zmq	-12.5749
Breadcrumb	-12.5749
precomposed	-12.5749
expectations	-12.5749
zanies	-12.5749
Saml	-12.5749
agenda	-12.5749
Money	-12.5749
ccsdt	-12.5749
Rows	-12.575
Broadleaf	-12.575
Reply	-12.575
compatible	-12.575
dwarf	-12.5751
unordered	-12.5752
-2.5.0.	-12.5752
coroutine	-12.5754
sunstone	-12.5756
sysctl	-12.5756
itch	-12.5758
buy	-12.5759
accumulators	-12.5759
cdr	-12.576
pthread	-12.5761
DES	-12.5764
neuro	-12.5765
8712/	-12.5767
challenges	-12.5769
clutter	-12.5769
trmm	-12.5777
xyz	-12.5777
hydra	-12.5779
chron	-12.5781
isObject	-12.5782
UIButton	-12.5783
TESTS	-12.5786
socialIcon	-12.5786
801	-12.5787
Localizations	-12.5789
slr	-12.5793
cust	-12.5793
Fact	-12.5795
Gwt	-12.5797
IOS	-12.5797
Dorkbots	-12.5797
Convention	-12.5797
Jerry	-12.5797
openmrs	-12.5797
titanium	-12.5797
QtGui	-12.5799
tripal	-12.5801
UX	-12.5801
Jet	-12.5801
Leaf	-12.5801
woody	-12.5803
forestdb	-12.5805
Cover	-12.5805
specifications	-12.5806
Requirement	-12.5806
4_24_	-12.581
Brand	-12.5811
RequestBuilder	-12.5815
gil	-12.5816
ctrip	-12.5816
paid	-12.5816
matter	-12.5819
Monitoring	-12.5822
hopping	-12.5828
LIR	-12.5828
distro	-12.5831
061.	-12.5831
621	-12.5832
useful	-12.5837
Dns	-12.5837
banners	-12.5837
chips	-12.584
CollectionTest	-12.5841
isDate	-12.5844
1_0.	-12.5845
Fundamentals	-12.5845
Snowplow	-12.5845
observation	-12.5845
Kingdoms	-12.5845
takeWhile	-12.5845
QuickCheck	-12.5847
Smoke	-12.5847
gather	-12.5848
Spread	-12.5849
lightning	-12.5849
ensure	-12.585
await	-12.5852
Height	-12.5852
nick	-12.5863
Orientation	-12.5864
grow	-12.5864
dou	-12.5866
procfs	-12.5867
zk	-12.5868
Dlg	-12.5869
brush	-12.5873
berry	-12.5873
MCP	-12.5878
661	-12.5879
Interactions	-12.5884
Conv	-12.5886
▁breadwallet	-12.5893
studip	-12.5893
Duplicate	-12.5893
Oracle	-12.5893
galaxy	-12.5893
Chromium	-12.5893
cyclic	-12.5893
Earth	-12.5893
credential	-12.5894
Procedure	-12.5894
Translate	-12.5894
machinelearning	-12.5895
1504	-12.5898
peg	-12.5899
crire	-12.5902
Members	-12.5905
Many	-12.5906
CPP	-12.5913
prev	-12.5914
Skip	-12.5922
UnityScript	-12.5927
325	-12.5929
trash	-12.5932
Steam	-12.5933
Norm	-12.5933
emotes	-12.5934
nie	-12.5939
cave	-12.5941
anchUnityTestBed	-12.5941
Phrase	-12.5942
separator	-12.5942
oamdma	-12.5942
marklogic	-12.5944
presenters	-12.5944
suggestion	-12.5945
tck	-12.5945
0010	-12.5946
foundicon	-12.5947
selinux	-12.5948
zsyscall	-12.5951
aea	-12.5951
Production	-12.5951
hyphen	-12.5951
Walker	-12.5952
2_24_	-12.5957
XC	-12.5959
scrap	-12.5962
ndla	-12.5968
ramp	-12.5968
subscriptions	-12.597
ape	-12.5971
bimap	-12.5971
▁101-	-12.5974
962	-12.5981
gni	-12.5981
webdav	-12.5983
repa	-12.5987
pda	-12.5988
cagrid	-12.5989
ghidra	-12.599
matrices	-12.599
Electron	-12.599
Circos	-12.599
Marshal	-12.5991
Partner	-12.5992
LaunchImage	-12.5992
Allowed	-12.5992
/36/36	-12.5994
Classifier	-12.5995
aero	-12.5997
MN	-12.5998
Who	-12.5999
Forwarding	-12.5999
rke	-12.6004
▁pandas	-12.6006
xfrm	-12.6008
4_23_	-12.601
lxybu	-12.601
10.0.	-12.6014
mapValues	-12.6016
lish	-12.6018
fdf	-12.6022
spike	-12.6036
pooling	-12.6039
[...]
